{
  "version": "1.0",
  "truncation": null,
  "padding": null,
  "added_tokens": [
    {
      "id": 0,
      "content": "[PAD]",
      "single_word": false,
      "lstrip": false,
      "rstrip": false,
      "normalized": false,
      "special": true
    },
    {
      "id": 1,
      "content": "[UNK]",
      "single_word": false,
      "lstrip": false,
      "rstrip": false,
      "normalized": false,
      "special": true
    },
    {
      "id": 2,
      "content": "[CLS]",
      "single_word": false,
      "lstrip": false,
      "rstrip": false,
      "normalized": false,
      "special": true
    },
    {
      "id": 3,
      "content": "[SEP]",
      "single_word": false,
      "lstrip": false,
      "rstrip": false,
      "normalized": false,
      "special": true
    },
    {
      "id": 4,
      "content": "[MASK]",
      "single_word": false,
      "lstrip": false,
      "rstrip": false,
      "normalized": false,
      "special": true
    }
  ],
  "normalizer": null,
  "pre_tokenizer": {
    "type": "Whitespace"
  },
  "post_processor": null,
  "decoder": null,
  "model": {
    "type": "WordPiece",
    "unk_token": "[UNK]",
    "continuing_subword_prefix": "##",
    "max_input_chars_per_word": 100,
    "vocab": {
      "[PAD]": 0,
      "[UNK]": 1,
      "[CLS]": 2,
      "[SEP]": 3,
      "[MASK]": 4,
      "!": 5,
      "\"": 6,
      "#": 7,
      "$": 8,
      "%": 9,
      "&": 10,
      "'": 11,
      ")": 12,
      "*": 13,
      "+": 14,
      ",": 15,
      "-": 16,
      ".": 17,
      "/": 18,
      "0": 19,
      "1": 20,
      "2": 21,
      "3": 22,
      "4": 23,
      "5": 24,
      "6": 25,
      "7": 26,
      "8": 27,
      "9": 28,
      ":": 29,
      ";": 30,
      "<": 31,
      "=": 32,
      ">": 33,
      "?": 34,
      "A": 35,
      "B": 36,
      "C": 37,
      "D": 38,
      "E": 39,
      "F": 40,
      "G": 41,
      "H": 42,
      "I": 43,
      "J": 44,
      "K": 45,
      "L": 46,
      "M": 47,
      "N": 48,
      "O": 49,
      "P": 50,
      "Q": 51,
      "R": 52,
      "S": 53,
      "T": 54,
      "U": 55,
      "V": 56,
      "W": 57,
      "X": 58,
      "Y": 59,
      "Z": 60,
      "[": 61,
      "]": 62,
      "^": 63,
      "_": 64,
      "`": 65,
      "a": 66,
      "b": 67,
      "c": 68,
      "d": 69,
      "e": 70,
      "f": 71,
      "g": 72,
      "h": 73,
      "i": 74,
      "j": 75,
      "k": 76,
      "l": 77,
      "m": 78,
      "n": 79,
      "o": 80,
      "p": 81,
      "q": 82,
      "r": 83,
      "s": 84,
      "t": 85,
      "u": 86,
      "v": 87,
      "w": 88,
      "x": 89,
      "y": 90,
      "z": 91,
      "{": 92,
      "|": 93,
      "}": 94,
      "~": 95,
      "": 96,
      "": 97,
      "": 98,
      "": 99,
      "": 100,
      "": 101,
      "": 102,
      "": 103,
      "": 104,
      "­": 105,
      "Ç": 106,
      "É": 107,
      "Ó": 108,
      "Ô": 109,
      "Ü": 110,
      "ß": 111,
      "á": 112,
      "â": 113,
      "ä": 114,
      "ç": 115,
      "é": 116,
      "í": 117,
      "ó": 118,
      "ú": 119,
      "ü": 120,
      "Č": 121,
      "č": 122,
      "ď": 123,
      "ę": 124,
      "Ľ": 125,
      "Ł": 126,
      "ł": 127,
      "ń": 128,
      "Ň": 129,
      "Ő": 130,
      "ŕ": 131,
      "š": 132,
      "Ť": 133,
      "ů": 134,
      "ű": 135,
      "ˇ": 136,
      "˛": 137,
      "##a": 138,
      "##g": 139,
      "##s": 140,
      "##w": 141,
      "##i": 142,
      "##e": 143,
      "##n": 144,
      "##o": 145,
      "##u": 146,
      "##c": 147,
      "##h": 148,
      "##r": 149,
      "##d": 150,
      "##t": 151,
      "##f": 152,
      "##y": 153,
      "##z": 154,
      "##.": 155,
      "##k": 156,
      "##l": 157,
      "##x": 158,
      "##p": 159,
      "##v": 160,
      "##3": 161,
      "##0": 162,
      "##H": 163,
      "##E": 164,
      "##R": 165,
      "##m": 166,
      "##b": 167,
      "##O": 168,
      "##G": 169,
      "##I": 170,
      "##V": 171,
      "##A": 172,
      "##S": 173,
      "##8": 174,
      "##2": 175,
      "##7": 176,
      "##M": 177,
      "##D": 178,
      "##N": 179,
      "##j": 180,
      "##&": 181,
      "##é": 182,
      "##U": 183,
      "##C": 184,
      "##T": 185,
      "##q": 186,
      "##P": 187,
      "##W": 188,
      "##9": 189,
      "##L": 190,
      "##\"": 191,
      "##?": 192,
      "##K": 193,
      "##Y": 194,
      "##4": 195,
      "##6": 196,
      "##'": 197,
      "##-": 198,
      "##í": 199,
      "##F": 200,
      "##J": 201,
      "##_": 202,
      "##[": 203,
      "##5": 204,
      "##!": 205,
      "##ę": 206,
      "##Z": 207,
      "##ń": 208,
      "##B": 209,
      "##ú": 210,
      "##1": 211,
      "##ů": 212,
      "##": 213,
      "##ŕ": 214,
      "##Q": 215,
      "##ç": 216,
      "##*": 217,
      "##~": 218,
      "##X": 219,
      "##Č": 220,
      "##<": 221,
      "##/": 222,
      "##": 223,
      "##Ő": 224,
      "##]": 225,
      "##č": 226,
      "##ó": 227,
      "##:": 228,
      "##)": 229,
      "##,": 230,
      "##š": 231,
      "##ü": 232,
      "##˛": 233,
      "##;": 234,
      "##ű": 235,
      "##$": 236,
      "##": 237,
      "##â": 238,
      "##ď": 239,
      "##ä": 240,
      "##á": 241,
      "##>": 242,
      "##": 243,
      "##`": 244,
      "##Ť": 245,
      "##ou": 246,
      "th": 247,
      "##er": 248,
      "##in": 249,
      "you": 250,
      "##at": 251,
      "the": 252,
      "##on": 253,
      "##an": 254,
      "##ing": 255,
      "to": 256,
      "##ll": 257,
      "##or": 258,
      "##en": 259,
      "##es": 260,
      "##ed": 261,
      "##ow": 262,
      "##ar": 263,
      "##nd": 264,
      "##is": 265,
      "##ot": 266,
      "##et": 267,
      "##it": 268,
      "##..": 269,
      "##om": 270,
      "##hat": 271,
      "##as": 272,
      "it": 273,
      "...": 274,
      "##ve": 275,
      "##ut": 276,
      "##re": 277,
      "##ay": 278,
      "in": 279,
      "of": 280,
      "##ere": 281,
      "me": 282,
      "re": 283,
      "be": 284,
      "You": 285,
      "##le": 286,
      "##us": 287,
      "that": 288,
      "##gh": 289,
      "##id": 290,
      "ha": 291,
      "##he": 292,
      "and": 293,
      "##ld": 294,
      "on": 295,
      "do": 296,
      "##ke": 297,
      "##ck": 298,
      "##al": 299,
      "##ght": 300,
      "he": 301,
      "is": 302,
      "##im": 303,
      "##oo": 304,
      "kn": 305,
      "--": 306,
      "for": 307,
      "##ver": 308,
      "know": 309,
      "##se": 310,
      "we": 311,
      "##ic": 312,
      "##ight": 313,
      "wh": 314,
      "don": 315,
      "##ad": 316,
      "What": 317,
      "li": 318,
      "st": 319,
      "was": 320,
      "##ust": 321,
      "an": 322,
      "your": 323,
      "##ell": 324,
      "have": 325,
      "##ir": 326,
      "##ould": 327,
      "##ith": 328,
      "##ome": 329,
      "not": 330,
      "go": 331,
      "##am": 332,
      "##ant": 333,
      "##ch": 334,
      "##ill": 335,
      "this": 336,
      "##ent": 337,
      "my": 338,
      "##ee": 339,
      "what": 340,
      "##ur": 341,
      "with": 342,
      "It": 343,
      "##all": 344,
      "##ly": 345,
      "The": 346,
      "##out": 347,
      "can": 348,
      "##ce": 349,
      "##ion": 350,
      "Wh": 351,
      "Th": 352,
      "##ter": 353,
      "##hing": 354,
      "ab": 355,
      "get": 356,
      "ne": 357,
      "sh": 358,
      "##ea": 359,
      "##ink": 360,
      "ll": 361,
      "out": 362,
      "##ct": 363,
      "want": 364,
      "He": 365,
      "##her": 366,
      "are": 367,
      "##st": 368,
      "like": 369,
      "about": 370,
      "No": 371,
      "all": 372,
      "##ri": 373,
      "just": 374,
      "got": 375,
      "##op": 376,
      "as": 377,
      "him": 378,
      "up": 379,
      "##ake": 380,
      "did": 381,
      "##ry": 382,
      "think": 383,
      "##one": 384,
      "here": 385,
      "We": 386,
      "##ess": 387,
      "##and": 388,
      "at": 389,
      "##ie": 390,
      "ve": 391,
      "##ra": 392,
      "any": 393,
      "##un": 394,
      "##ook": 395,
      "That": 396,
      "##pp": 397,
      "so": 398,
      "##est": 399,
      "pr": 400,
      "And": 401,
      "there": 402,
      "they": 403,
      "##ood": 404,
      "wor": 405,
      "##ack": 406,
      "but": 407,
      "##ind": 408,
      "##ore": 409,
      "##od": 410,
      "her": 411,
      "one": 412,
      "##il": 413,
      "su": 414,
      "no": 415,
      "see": 416,
      "some": 417,
      "if": 418,
      "de": 419,
      "right": 420,
      "going": 421,
      "##art": 422,
      "But": 423,
      "##ive": 424,
      "##ally": 425,
      "al": 426,
      "##ain": 427,
      "##ge": 428,
      "##os": 429,
      "fr": 430,
      "##ard": 431,
      "say": 432,
      "##uck": 433,
      "would": 434,
      "Well": 435,
      "Oh": 436,
      "##ist": 437,
      "she": 438,
      "##alk": 439,
      "##ig": 440,
      "##ime": 441,
      "us": 442,
      "##eah": 443,
      "##ul": 444,
      "ever": 445,
      "##if": 446,
      "man": 447,
      "sa": 448,
      "##ol": 449,
      "pl": 450,
      "##ong": 451,
      "ch": 452,
      "##ame": 453,
      "##ate": 454,
      "##ven": 455,
      "or": 456,
      "##ast": 457,
      "who": 458,
      "How": 459,
      "could": 460,
      "##rou": 461,
      "##end": 462,
      "lo": 463,
      "Yes": 464,
      "##omet": 465,
      "##ab": 466,
      "gu": 467,
      "thing": 468,
      "tell": 469,
      "##ear": 470,
      "now": 471,
      "##way": 472,
      "his": 473,
      "##ers": 474,
      "been": 475,
      "##ob": 476,
      "time": 477,
      "They": 478,
      "from": 479,
      "Yeah": 480,
      "##our": 481,
      "##ine": 482,
      "##ak": 483,
      "were": 484,
      "back": 485,
      "them": 486,
      "ex": 487,
      "mean": 488,
      "look": 489,
      "##na": 490,
      "se": 491,
      "##ice": 492,
      "##um": 493,
      "com": 494,
      "Why": 495,
      "##itt": 496,
      "talk": 497,
      "##thing": 498,
      "good": 499,
      "##own": 500,
      "will": 501,
      "somet": 502,
      "didn": 503,
      "had": 504,
      "##lf": 505,
      "too": 506,
      "off": 507,
      "##ick": 508,
      "##ation": 509,
      "She": 510,
      "##use": 511,
      "##ank": 512,
      "So": 513,
      "##ous": 514,
      "##ap": 515,
      "con": 516,
      "Do": 517,
      "##other": 518,
      "##ose": 519,
      "when": 520,
      "way": 521,
      "##ure": 522,
      "sp": 523,
      "how": 524,
      "something": 525,
      "##el": 526,
      "never": 527,
      "car": 528,
      "##ort": 529,
      "##em": 530,
      "ag": 531,
      "##ody": 532,
      "come": 533,
      "need": 534,
      "##ect": 535,
      "tw": 536,
      "take": 537,
      "work": 538,
      "Don": 539,
      "every": 540,
      "##ty": 541,
      "If": 542,
      "This": 543,
      "##be": 544,
      "##ittle": 545,
      "happ": 546,
      "call": 547,
      "##ause": 548,
      "down": 549,
      "Not": 550,
      "##ery": 551,
      "Mr": 552,
      "##ase": 553,
      "make": 554,
      "##kay": 555,
      "over": 556,
      "##ew": 557,
      "##ff": 558,
      "##oy": 559,
      "##onna": 560,
      "more": 561,
      "fuck": 562,
      "little": 563,
      "am": 564,
      "##eop": 565,
      "##ace": 566,
      "gonna": 567,
      "##eople": 568,
      "does": 569,
      "should": 570,
      "##aybe": 571,
      "en": 572,
      "cl": 573,
      "let": 574,
      "thou": 575,
      "##body": 576,
      "##self": 577,
      "tr": 578,
      "le": 579,
      "really": 580,
      "There": 581,
      "##ide": 582,
      "##uch": 583,
      "##ber": 584,
      "kill": 585,
      "int": 586,
      "guy": 587,
      "bet": 588,
      "won": 589,
      "has": 590,
      "qu": 591,
      "by": 592,
      "##ag": 593,
      "our": 594,
      "##reat": 595,
      "people": 596,
      "St": 597,
      "##th": 598,
      "##iss": 599,
      "said": 600,
      "##oney": 601,
      "##nder": 602,
      "br": 603,
      "##ud": 604,
      "then": 605,
      "Ch": 606,
      "much": 607,
      "mo": 608,
      "##fe": 609,
      "happen": 610,
      "##ree": 611,
      "##ther": 612,
      "Where": 613,
      "</": 614,
      "why": 615,
      "day": 616,
      "only": 617,
      "where": 618,
      "year": 619,
      "un": 620,
      "##ish": 621,
      "##eel": 622,
      "Is": 623,
      "##ving": 624,
      "##cause": 625,
      "very": 626,
      "af": 627,
      "under": 628,
      "Who": 629,
      "bl": 630,
      "##ound": 631,
      "dr": 632,
      "wr": 633,
      "##ies": 634,
      "##orry": 635,
      "##round": 636,
      "sure": 637,
      "##ity": 638,
      "##ite": 639,
      "Just": 640,
      "co": 641,
      "My": 642,
      "thought": 643,
      "other": 644,
      "two": 645,
      "##ble": 646,
      "##eep": 647,
      "anything": 648,
      "ar": 649,
      "feel": 650,
      "##ting": 651,
      "##ue": 652,
      "##ny": 653,
      "sc": 654,
      "love": 655,
      "Now": 656,
      "even": 657,
      "##riend": 658,
      "bel": 659,
      "ask": 660,
      "##lp": 661,
      "night": 662,
      "##wn": 663,
      "##ta": 664,
      "##ip": 665,
      "into": 666,
      "##fore": 667,
      "doing": 668,
      "##ait": 669,
      "##ep": 670,
      "##ull": 671,
      "find": 672,
      "again": 673,
      "try": 674,
      "hu": 675,
      "##ning": 676,
      "##ather": 677,
      "give": 678,
      "help": 679,
      "##pl": 680,
      "##ment": 681,
      "##irst": 682,
      "life": 683,
      "long": 684,
      "money": 685,
      "##ac": 686,
      "##ady": 687,
      "##ang": 688,
      "In": 689,
      "told": 690,
      "around": 691,
      "than": 692,
      "##ass": 693,
      "##row": 694,
      "##ade": 695,
      "before": 696,
      "Be": 697,
      "##der": 698,
      "belie": 699,
      "##ance": 700,
      "##ich": 701,
      "Did": 702,
      "im": 703,
      "things": 704,
      "gir": 705,
      "##ough": 706,
      "must": 707,
      "##ire": 708,
      "Look": 709,
      "still": 710,
      "##ways": 711,
      "##iz": 712,
      "Let": 713,
      "##ves": 714,
      "friend": 715,
      "ro": 716,
      "All": 717,
      "##lease": 718,
      "put": 719,
      "##get": 720,
      "##oss": 721,
      "##ave": 722,
      "##ool": 723,
      "God": 724,
      "sorry": 725,
      "Are": 726,
      "fa": 727,
      "kind": 728,
      "##age": 729,
      "better": 730,
      "well": 731,
      "##ro": 732,
      "##atch": 733,
      "##per": 734,
      "years": 735,
      "sir": 736,
      "lea": 737,
      "Then": 738,
      "kid": 739,
      "em": 740,
      "##ach": 741,
      "##red": 742,
      "old": 743,
      "On": 744,
      "away": 745,
      "Sh": 746,
      "last": 747,
      "##ence": 748,
      "##oun": 749,
      "po": 750,
      "rem": 751,
      "Maybe": 752,
      "believe": 753,
      "after": 754,
      "always": 755,
      "prob": 756,
      "girl": 757,
      "part": 758,
      "keep": 759,
      "first": 760,
      "##ile": 761,
      "cour": 762,
      "##urn": 763,
      "Okay": 764,
      "real": 765,
      "##ft": 766,
      "##stand": 767,
      "lot": 768,
      "##ved": 769,
      "place": 770,
      "name": 771,
      "##day": 772,
      "Thank": 773,
      "##ix": 774,
      "##ise": 775,
      "these": 776,
      "home": 777,
      "##ried": 778,
      "min": 779,
      "nothing": 780,
      "##ever": 781,
      "##ild": 782,
      "their": 783,
      "##isten": 784,
      "those": 785,
      "When": 786,
      "ass": 787,
      "care": 788,
      "##og": 789,
      "##ord": 790,
      "bad": 791,
      "Can": 792,
      "new": 793,
      "mar": 794,
      "doesn": 795,
      "big": 796,
      "##ci": 797,
      "##ember": 798,
      "because": 799,
      "sw": 800,
      "understand": 801,
      "Hey": 802,
      "hand": 803,
      "Good": 804,
      "##int": 805,
      "Your": 806,
      "Jo": 807,
      "##pt": 808,
      "el": 809,
      "##ouse": 810,
      "Fr": 811,
      "##ond": 812,
      "sm": 813,
      "okay": 814,
      "##au": 815,
      "##ory": 816,
      "start": 817,
      "##ath": 818,
      "boy": 819,
      "hell": 820,
      "ac": 821,
      "##ary": 822,
      "bus": 823,
      "wait": 824,
      "shit": 825,
      "play": 826,
      "##iff": 827,
      "isn": 828,
      "course": 829,
      "##qu": 830,
      "supp": 831,
      "wouldn": 832,
      "run": 833,
      "talking": 834,
      "minut": 835,
      "hear": 836,
      "##able": 837,
      "For": 838,
      "great": 839,
      "might": 840,
      "else": 841,
      "dead": 842,
      "dis": 843,
      "##ater": 844,
      "own": 845,
      "id": 846,
      "##dd": 847,
      "##ons": 848,
      "##tain": 849,
      "guess": 850,
      "##ious": 851,
      "##arl": 852,
      "stay": 853,
      "##ock": 854,
      "##ful": 855,
      "fl": 856,
      "act": 857,
      "##amn": 858,
      "##oth": 859,
      "wrong": 860,
      "##ans": 861,
      "Re": 862,
      "made": 863,
      "bu": 864,
      "everything": 865,
      "wanted": 866,
      "happened": 867,
      "##atter": 868,
      "sec": 869,
      "mind": 870,
      "##aking": 871,
      "show": 872,
      "stu": 873,
      "per": 874,
      "##old": 875,
      "##een": 876,
      "wom": 877,
      "##ars": 878,
      "##ike": 879,
      "##ict": 880,
      "##ek": 881,
      "##rough": 882,
      "##aw": 883,
      "remember": 884,
      "##lem": 885,
      "yourself": 886,
      "Come": 887,
      "enough": 888,
      "An": 889,
      "cr": 890,
      "done": 891,
      "head": 892,
      "ain": 893,
      "tra": 894,
      "through": 895,
      "##are": 896,
      "job": 897,
      "yes": 898,
      "##--": 899,
      "##imes": 900,
      "leave": 901,
      "cra": 902,
      "stop": 903,
      "house": 904,
      "three": 905,
      "mon": 906,
      "che": 907,
      "##pr": 908,
      "wasn": 909,
      "gotta": 910,
      "##port": 911,
      "Al": 912,
      "##orm": 913,
      "##pect": 914,
      "maybe": 915,
      "##ia": 916,
      "##akes": 917,
      "##ions": 918,
      "inter": 919,
      "##ark": 920,
      "ph": 921,
      "getting": 922,
      "Pr": 923,
      "##ost": 924,
      "res": 925,
      "left": 926,
      "##etty": 927,
      "week": 928,
      "##act": 929,
      "##iness": 930,
      "##ife": 931,
      "came": 932,
      "fucking": 933,
      "##ey": 934,
      "father": 935,
      "##ange": 936,
      "world": 937,
      "saw": 938,
      "Ever": 939,
      "being": 940,
      "##ub": 941,
      "##ount": 942,
      "knew": 943,
      "##ple": 944,
      "str": 945,
      "mother": 946,
      "room": 947,
      "##erson": 948,
      "trying": 949,
      "ins": 950,
      "?!": 951,
      "another": 952,
      "##pen": 953,
      "went": 954,
      "##ated": 955,
      "##ian": 956,
      "ser": 957,
      "##ign": 958,
      "##sh": 959,
      "##ied": 960,
      "Go": 961,
      "matter": 962,
      "someone": 963,
      "##ner": 964,
      "##ctor": 965,
      "##enty": 966,
      "mor": 967,
      "rec": 968,
      "##ng": 969,
      "Get": 970,
      "diff": 971,
      "...?": 972,
      "##oll": 973,
      "Br": 974,
      "heard": 975,
      "##mm": 976,
      "....": 977,
      "##man": 978,
      "hard": 979,
      "huh": 980,
      "##hn": 981,
      "seen": 982,
      "nice": 983,
      "meet": 984,
      "##orrow": 985,
      "Sure": 986,
      "gr": 987,
      "##dy": 988,
      "ad": 989,
      "five": 990,
      "##ope": 991,
      "whole": 992,
      "looking": 993,
      "##onight": 994,
      "##itch": 995,
      "##oot": 996,
      "Am": 997,
      "##ince": 998,
      "sl": 999,
      "##ail": 1000,
      "##igh": 1001,
      "same": 1002,
      "business": 1003,
      "pro": 1004,
      "##leep": 1005,
      "live": 1006,
      "coming": 1007,
      "hour": 1008,
      "##osed": 1009,
      "As": 1010,
      "app": 1011,
      "haven": 1012,
      "##ily": 1013,
      "Of": 1014,
      "Some": 1015,
      "##ug": 1016,
      "##ndred": 1017,
      "fine": 1018,
      "guys": 1019,
      "quest": 1020,
      "John": 1021,
      "Right": 1022,
      "Every": 1023,
      "person": 1024,
      "##xt": 1025,
      "please": 1026,
      "hundred": 1027,
      "problem": 1028,
      "killed": 1029,
      "idea": 1030,
      "turn": 1031,
      "hur": 1032,
      "fun": 1033,
      "sch": 1034,
      "used": 1035,
      "Any": 1036,
      "plan": 1037,
      "Tell": 1038,
      "fam": 1039,
      "pay": 1040,
      "best": 1041,
      "##ually": 1042,
      "bre": 1043,
      "Because": 1044,
      "deal": 1045,
      "To": 1046,
      "Uh": 1047,
      "##eet": 1048,
      "##ible": 1049,
      "##ents": 1050,
      "tonight": 1051,
      "miss": 1052,
      "##my": 1053,
      "wife": 1054,
      "walk": 1055,
      "Hell": 1056,
      "word": 1057,
      "##air": 1058,
      "Ma": 1059,
      "att": 1060,
      "##ett": 1061,
      "##ister": 1062,
      "many": 1063,
      "Like": 1064,
      "ya": 1065,
      "found": 1066,
      "##av": 1067,
      "##anc": 1068,
      "myself": 1069,
      "##zy": 1070,
      "inv": 1071,
      "couldn": 1072,
      "acc": 1073,
      "##ably": 1074,
      "bab": 1075,
      "##here": 1076,
      "seem": 1077,
      "watch": 1078,
      "##iv": 1079,
      "pretty": 1080,
      "woman": 1081,
      "cle": 1082,
      "##ical": 1083,
      "differ": 1084,
      "pol": 1085,
      "men": 1086,
      "##ident": 1087,
      "Will": 1088,
      "##orn": 1089,
      "read": 1090,
      "##ream": 1091,
      "##ash": 1092,
      "Ex": 1093,
      "##ult": 1094,
      "##ready": 1095,
      "few": 1096,
      "called": 1097,
      "##gether": 1098,
      "##aught": 1099,
      "listen": 1100,
      "end": 1101,
      "son": 1102,
      "fin": 1103,
      "stuff": 1104,
      "morning": 1105,
      "may": 1106,
      "ago": 1107,
      "use": 1108,
      "##ors": 1109,
      "##uth": 1110,
      "Chr": 1111,
      "sur": 1112,
      "already": 1113,
      "thank": 1114,
      "##ense": 1115,
      "Please": 1116,
      "gl": 1117,
      "saying": 1118,
      "war": 1119,
      "##ings": 1120,
      "comp": 1121,
      "while": 1122,
      "yet": 1123,
      "together": 1124,
      "des": 1125,
      "tom": 1126,
      "##ason": 1127,
      "cont": 1128,
      "##oke": 1129,
      "point": 1130,
      "##pe": 1131,
      "without": 1132,
      "four": 1133,
      "tri": 1134,
      "##ib": 1135,
      "pre": 1136,
      "days": 1137,
      "school": 1138,
      "##...": 1139,
      "dri": 1140,
      "##anna": 1141,
      "Cl": 1142,
      "Or": 1143,
      "One": 1144,
      "De": 1145,
      "ey": 1146,
      "Ar": 1147,
      "bo": 1148,
      "most": 1149,
      "six": 1150,
      "Have": 1151,
      "Me": 1152,
      "drink": 1153,
      "yeah": 1154,
      "##ah": 1155,
      "sit": 1156,
      "##ph": 1157,
      "##raid": 1158,
      "rest": 1159,
      "tomorrow": 1160,
      "uh": 1161,
      "wonder": 1162,
      "Dad": 1163,
      "next": 1164,
      "far": 1165,
      "Jes": 1166,
      "Nothing": 1167,
      "sleep": 1168,
      "alone": 1169,
      "child": 1170,
      "pick": 1171,
      "doll": 1172,
      "##ole": 1173,
      "Tw": 1174,
      "crazy": 1175,
      "##til": 1176,
      "took": 1177,
      "##ating": 1178,
      "##less": 1179,
      "##ens": 1180,
      "open": 1181,
      "minute": 1182,
      "##eak": 1183,
      "comm": 1184,
      "met": 1185,
      "##ired": 1186,
      "##ousand": 1187,
      "stand": 1188,
      "Dr": 1189,
      "says": 1190,
      "Christ": 1191,
      "##ird": 1192,
      "wants": 1193,
      "baby": 1194,
      "##actly": 1195,
      "cut": 1196,
      "worry": 1197,
      "thousand": 1198,
      "Thanks": 1199,
      "late": 1200,
      "gone": 1201,
      "##gg": 1202,
      "dec": 1203,
      "##ize": 1204,
      "##ont": 1205,
      "afraid": 1206,
      "##les": 1207,
      "month": 1208,
      "##sw": 1209,
      "case": 1210,
      "friends": 1211,
      "interest": 1212,
      "once": 1213,
      "##where": 1214,
      "brother": 1215,
      "count": 1216,
      "mom": 1217,
      "##ower": 1218,
      "fig": 1219,
      "today": 1220,
      "##ition": 1221,
      "hurt": 1222,
      "knows": 1223,
      "Listen": 1224,
      "##aut": 1225,
      "ten": 1226,
      "Jack": 1227,
      "##ork": 1228,
      "##right": 1229,
      "##ither": 1230,
      "gun": 1231,
      "bring": 1232,
      "##ins": 1233,
      "supposed": 1234,
      "cou": 1235,
      "##amp": 1236,
      "##asy": 1237,
      "thinking": 1238,
      "ter": 1239,
      "gi": 1240,
      "anyone": 1241,
      "such": 1242,
      "Jesus": 1243,
      "##ott": 1244,
      "At": 1245,
      "##cept": 1246,
      "half": 1247,
      "Un": 1248,
      "##az": 1249,
      "break": 1250,
      "hope": 1251,
      "Mar": 1252,
      "##ump": 1253,
      "book": 1254,
      "See": 1255,
      "since": 1256,
      "die": 1257,
      "!!": 1258,
      "Somet": 1259,
      "which": 1260,
      "Miss": 1261,
      "##ying": 1262,
      "cop": 1263,
      "check": 1264,
      "hold": 1265,
      "Mrs": 1266,
      "second": 1267,
      "probably": 1268,
      "minutes": 1269,
      "trou": 1270,
      "##vel": 1271,
      "Here": 1272,
      "##ets": 1273,
      "##rew": 1274,
      "##ness": 1275,
      "##oc": 1276,
      "shot": 1277,
      "prom": 1278,
      "##unch": 1279,
      "Would": 1280,
      "makes": 1281,
      "story": 1282,
      "poss": 1283,
      "face": 1284,
      "until": 1285,
      "wanna": 1286,
      "beaut": 1287,
      "sound": 1288,
      "working": 1289,
      "question": 1290,
      "town": 1291,
      "family": 1292,
      "fight": 1293,
      "soon": 1294,
      "married": 1295,
      "rel": 1296,
      "##ared": 1297,
      "##ract": 1298,
      "te": 1299,
      "Com": 1300,
      "somebody": 1301,
      "bed": 1302,
      "##ec": 1303,
      "..": 1304,
      "fif": 1305,
      "hot": 1306,
      "law": 1307,
      "eat": 1308,
      "##ial": 1309,
      "New": 1310,
      "##iful": 1311,
      "Ab": 1312,
      "compl": 1313,
      "##ok": 1314,
      "##app": 1315,
      "Har": 1316,
      "lost": 1317,
      "true": 1318,
      "gave": 1319,
      "##ier": 1320,
      "##ger": 1321,
      "##ual": 1322,
      "young": 1323,
      "different": 1324,
      "ap": 1325,
      "wish": 1326,
      "heart": 1327,
      "##ely": 1328,
      "least": 1329,
      "set": 1330,
      "twenty": 1331,
      "##its": 1332,
      "damn": 1333,
      "##ations": 1334,
      "##by": 1335,
      "Hello": 1336,
      "move": 1337,
      "##iver": 1338,
      "##00": 1339,
      "Wait": 1340,
      "par": 1341,
      "##aid": 1342,
      "kids": 1343,
      "##ress": 1344,
      "inf": 1345,
      "##ned": 1346,
      "##irty": 1347,
      "Le": 1348,
      "##more": 1349,
      "import": 1350,
      "trouble": 1351,
      "##uss": 1352,
      "high": 1353,
      "hate": 1354,
      "##son": 1355,
      "phone": 1356,
      "aw": 1357,
      "reason": 1358,
      "Hi": 1359,
      "gets": 1360,
      "##unk": 1361,
      "door": 1362,
      "Take": 1363,
      "luck": 1364,
      "pass": 1365,
      "conf": 1366,
      "exactly": 1367,
      "answ": 1368,
      "mill": 1369,
      "##ert": 1370,
      "anyway": 1371,
      "asked": 1372,
      "##ollow": 1373,
      "having": 1374,
      "##gin": 1375,
      "##ates": 1376,
      "char": 1377,
      "bit": 1378,
      "##ax": 1379,
      "aren": 1380,
      "police": 1381,
      "##enc": 1382,
      "beh": 1383,
      "num": 1384,
      "##uh": 1385,
      "Tom": 1386,
      "Bl": 1387,
      "dream": 1388,
      "expl": 1389,
      "##cial": 1390,
      "Really": 1391,
      "dollars": 1392,
      "With": 1393,
      "ev": 1394,
      "trust": 1395,
      "##ention": 1396,
      "anymore": 1397,
      "chance": 1398,
      "times": 1399,
      "each": 1400,
      "##ese": 1401,
      "change": 1402,
      "Was": 1403,
      "ob": 1404,
      "fuckin": 1405,
      "##up": 1406,
      "both": 1407,
      "happy": 1408,
      "Gr": 1409,
      "##ertain": 1410,
      "hit": 1411,
      "important": 1412,
      "hum": 1413,
      "##ude": 1414,
      "hours": 1415,
      "##outh": 1416,
      "Frank": 1417,
      "serious": 1418,
      "Sorry": 1419,
      "##head": 1420,
      "expect": 1421,
      "telling": 1422,
      "couple": 1423,
      "beautiful": 1424,
      "Ne": 1425,
      "##ane": 1426,
      "anybody": 1427,
      "forget": 1428,
      "Fuck": 1429,
      "Sp": 1430,
      "eight": 1431,
      "##ret": 1432,
      "making": 1433,
      "##ren": 1434,
      "taking": 1435,
      "sk": 1436,
      "##ding": 1437,
      "fact": 1438,
      "sign": 1439,
      "mine": 1440,
      "blood": 1441,
      "body": 1442,
      "ready": 1443,
      "##ames": 1444,
      "##----": 1445,
      "truth": 1446,
      "light": 1447,
      "comes": 1448,
      "close": 1449,
      "disc": 1450,
      "pri": 1451,
      "##io": 1452,
      "##ward": 1453,
      "Cap": 1454,
      "cause": 1455,
      "lear": 1456,
      "yours": 1457,
      "Does": 1458,
      "side": 1459,
      "##ouch": 1460,
      "easy": 1461,
      "##iet": 1462,
      "##ison": 1463,
      "cons": 1464,
      "shoot": 1465,
      "bra": 1466,
      "##ush": 1467,
      "pull": 1468,
      "send": 1469,
      "quite": 1470,
      "buy": 1471,
      "perf": 1472,
      "later": 1473,
      "##vie": 1474,
      "pict": 1475,
      "##ove": 1476,
      "##land": 1477,
      "##ne": 1478,
      "##cc": 1479,
      "looks": 1480,
      "follow": 1481,
      "##ped": 1482,
      "speak": 1483,
      "##ters": 1484,
      "Sc": 1485,
      "##ipp": 1486,
      "mur": 1487,
      "sick": 1488,
      "tried": 1489,
      "eyes": 1490,
      "##inc": 1491,
      "##olog": 1492,
      "hon": 1493,
      "goes": 1494,
      "##aps": 1495,
      "##uct": 1496,
      "doctor": 1497,
      "exc": 1498,
      "'.": 1499,
      "##come": 1500,
      "sort": 1501,
      "ret": 1502,
      "news": 1503,
      "##led": 1504,
      "##eral": 1505,
      "death": 1506,
      "##uc": 1507,
      "##ms": 1508,
      "##hh": 1509,
      "##hin": 1510,
      "against": 1511,
      "##OU": 1512,
      "air": 1513,
      "mess": 1514,
      "inst": 1515,
      "hands": 1516,
      "Ge": 1517,
      "##side": 1518,
      "##band": 1519,
      "Mom": 1520,
      "game": 1521,
      "free": 1522,
      "fell": 1523,
      "answer": 1524,
      "water": 1525,
      "##inner": 1526,
      "pie": 1527,
      "sy": 1528,
      "##usband": 1529,
      "##artment": 1530,
      "##ung": 1531,
      "million": 1532,
      "His": 1533,
      "Tr": 1534,
      "##eric": 1535,
      "sent": 1536,
      "##most": 1537,
      "though": 1538,
      "##iles": 1539,
      "sex": 1540,
      "country": 1541,
      "fire": 1542,
      "cor": 1543,
      "godd": 1544,
      "##so": 1545,
      "##ling": 1546,
      "stra": 1547,
      "Man": 1548,
      "husband": 1549,
      "bull": 1550,
      "means": 1551,
      "power": 1552,
      "along": 1553,
      "##reet": 1554,
      "Americ": 1555,
      "##ton": 1556,
      "inside": 1557,
      "##sy": 1558,
      "##ject": 1559,
      "ship": 1560,
      "touch": 1561,
      "Bill": 1562,
      "sim": 1563,
      "full": 1564,
      "dog": 1565,
      "Af": 1566,
      "##ley": 1567,
      "waiting": 1568,
      "##als": 1569,
      "##ape": 1570,
      "##ient": 1571,
      "Two": 1572,
      "months": 1573,
      "forg": 1574,
      "lik": 1575,
      "Je": 1576,
      "##pid": 1577,
      "##arly": 1578,
      "died": 1579,
      "inc": 1580,
      "##idd": 1581,
      "Huh": 1582,
      "suppose": 1583,
      "certain": 1584,
      "##oice": 1585,
      "##att": 1586,
      "murder": 1587,
      "##ised": 1588,
      "office": 1589,
      "Jim": 1590,
      "##ween": 1591,
      "##ides": 1592,
      "conc": 1593,
      "number": 1594,
      "##ital": 1595,
      "##anger": 1596,
      "##orge": 1597,
      "either": 1598,
      "party": 1599,
      "##ured": 1600,
      "##ator": 1601,
      "pres": 1602,
      "coll": 1603,
      "Never": 1604,
      "##teen": 1605,
      "stupid": 1606,
      "##sel": 1607,
      "##aken": 1608,
      "dad": 1609,
      "pap": 1610,
      "##aughter": 1611,
      "everybody": 1612,
      "funny": 1613,
      "Se": 1614,
      "##unt": 1615,
      "drop": 1616,
      "actually": 1617,
      "##oon": 1618,
      "ele": 1619,
      "ma": 1620,
      "wind": 1621,
      "wear": 1622,
      "alive": 1623,
      "Captain": 1624,
      "##each": 1625,
      "##ys": 1626,
      "##ler": 1627,
      "finish": 1628,
      "fav": 1629,
      "def": 1630,
      "behind": 1631,
      "Ah": 1632,
      "Charl": 1633,
      "##ield": 1634,
      "himself": 1635,
      "women": 1636,
      "Su": 1637,
      "line": 1638,
      "##erv": 1639,
      "##ures": 1640,
      "##umb": 1641,
      "Sir": 1642,
      "sense": 1643,
      "sub": 1644,
      "leg": 1645,
      "bar": 1646,
      "Bob": 1647,
      "##ony": 1648,
      "det": 1649,
      "spe": 1650,
      "figure": 1651,
      "Got": 1652,
      "fall": 1653,
      "started": 1654,
      "between": 1655,
      "Ben": 1656,
      "Could": 1657,
      "May": 1658,
      "Give": 1659,
      "TH": 1660,
      "safe": 1661,
      "sn": 1662,
      "##press": 1663,
      "##med": 1664,
      "record": 1665,
      "Bar": 1666,
      "running": 1667,
      "Nobody": 1668,
      "worth": 1669,
      "nobody": 1670,
      "dep": 1671,
      "able": 1672,
      "##shit": 1673,
      "exper": 1674,
      "pain": 1675,
      "##eal": 1676,
      "Her": 1677,
      "##olut": 1678,
      "imp": 1679,
      "reg": 1680,
      "##osp": 1681,
      "Per": 1682,
      "##ks": 1683,
      "##lic": 1684,
      "living": 1685,
      "George": 1686,
      "##ards": 1687,
      "honey": 1688,
      "El": 1689,
      "##aster": 1690,
      "scared": 1691,
      "dinner": 1692,
      "rid": 1693,
      "shouldn": 1694,
      "About": 1695,
      "shut": 1696,
      "goddamn": 1697,
      "fifty": 1698,
      "almost": 1699,
      "terri": 1700,
      "##haps": 1701,
      "order": 1702,
      "ahead": 1703,
      "dra": 1704,
      "By": 1705,
      "##ER": 1706,
      "##ats": 1707,
      "Ad": 1708,
      "hair": 1709,
      "feeling": 1710,
      "sweet": 1711,
      "drive": 1712,
      "Something": 1713,
      "Say": 1714,
      "moment": 1715,
      "clean": 1716,
      "##eren": 1717,
      "##rought": 1718,
      "hang": 1719,
      "test": 1720,
      "happens": 1721,
      "stud": 1722,
      "prop": 1723,
      "YOU": 1724,
      "sing": 1725,
      "Fine": 1726,
      "##ience": 1727,
      "##ited": 1728,
      "Very": 1729,
      "##ider": 1730,
      "sister": 1731,
      "Gu": 1732,
      "##ote": 1733,
      "##cks": 1734,
      "dou": 1735,
      "##ene": 1736,
      "front": 1737,
      "everyone": 1738,
      "win": 1739,
      "Only": 1740,
      "chang": 1741,
      "##atur": 1742,
      "whatever": 1743,
      "brought": 1744,
      "build": 1745,
      "adv": 1746,
      "straight": 1747,
      "mem": 1748,
      "asking": 1749,
      "gra": 1750,
      "hor": 1751,
      "Pa": 1752,
      "black": 1753,
      "arr": 1754,
      "children": 1755,
      "lead": 1756,
      "##leas": 1757,
      "##itting": 1758,
      "weeks": 1759,
      "Exc": 1760,
      "York": 1761,
      "##me": 1762,
      "mist": 1763,
      "weren": 1764,
      "ref": 1765,
      "Pet": 1766,
      "class": 1767,
      "ind": 1768,
      "##rol": 1769,
      "##any": 1770,
      "##ined": 1771,
      "##ics": 1772,
      "lie": 1773,
      "write": 1774,
      "favor": 1775,
      "Sam": 1776,
      "fool": 1777,
      "outside": 1778,
      "##arth": 1779,
      "Pres": 1780,
      "daughter": 1781,
      "vis": 1782,
      "After": 1783,
      "lose": 1784,
      "mus": 1785,
      "##ten": 1786,
      "##IN": 1787,
      "##ought": 1788,
      "thirty": 1789,
      "also": 1790,
      "perfect": 1791,
      "less": 1792,
      "##mit": 1793,
      "dear": 1794,
      "gen": 1795,
      "ext": 1796,
      "##ale": 1797,
      "boys": 1798,
      "##ps": 1799,
      "Ed": 1800,
      "bur": 1801,
      "ball": 1802,
      "secret": 1803,
      "mad": 1804,
      "ent": 1805,
      "Eng": 1806,
      "dist": 1807,
      ".'": 1808,
      "cur": 1809,
      "es": 1810,
      "Mary": 1811,
      "sell": 1812,
      "##icul": 1813,
      "art": 1814,
      "lady": 1815,
      "##ief": 1816,
      "taken": 1817,
      "##uff": 1818,
      "Stop": 1819,
      ">.": 1820,
      "human": 1821,
      "Qu": 1822,
      "small": 1823,
      "bitch": 1824,
      "till": 1825,
      "##omb": 1826,
      "Which": 1827,
      "girls": 1828,
      "glad": 1829,
      "lives": 1830,
      "catch": 1831,
      "complet": 1832,
      "alright": 1833,
      "thanks": 1834,
      "##sych": 1835,
      "its": 1836,
      "prot": 1837,
      "##uddy": 1838,
      "surpr": 1839,
      "##airs": 1840,
      "##ram": 1841,
      "##ility": 1842,
      "possible": 1843,
      "Con": 1844,
      "dest": 1845,
      "##ounds": 1846,
      "##augh": 1847,
      "Pl": 1848,
      "cold": 1849,
      "seems": 1850,
      "explain": 1851,
      "grand": 1852,
      "fast": 1853,
      "del": 1854,
      "buck": 1855,
      "danger": 1856,
      "##cle": 1857,
      "past": 1858,
      "##ospital": 1859,
      "bother": 1860,
      "##arm": 1861,
      "goin": 1862,
      "##room": 1863,
      "##oor": 1864,
      "dress": 1865,
      "somewhere": 1866,
      "trans": 1867,
      "report": 1868,
      "##ama": 1869,
      "needs": 1870,
      "mouth": 1871,
      "##iting": 1872,
      "##ically": 1873,
      "throw": 1874,
      "##key": 1875,
      "Ph": 1876,
      "beat": 1877,
      "inform": 1878,
      "rad": 1879,
      "tired": 1880,
      "Rem": 1881,
      "thinks": 1882,
      "food": 1883,
      "key": 1884,
      "##ative": 1885,
      "piece": 1886,
      "Paul": 1887,
      "seven": 1888,
      "##solut": 1889,
      "##ught": 1890,
      "##bt": 1891,
      "Shut": 1892,
      "Harry": 1893,
      "col": 1894,
      "movie": 1895,
      "##eg": 1896,
      "##lin": 1897,
      "learn": 1898,
      "Ag": 1899,
      "add": 1900,
      "##nie": 1901,
      "President": 1902,
      "##oint": 1903,
      "##eed": 1904,
      "##elt": 1905,
      "##fort": 1906,
      "blow": 1907,
      "Great": 1908,
      "cap": 1909,
      "accident": 1910,
      "##ior": 1911,
      "offer": 1912,
      "##erg": 1913,
      "These": 1914,
      "rather": 1915,
      "##uce": 1916,
      "known": 1917,
      "Even": 1918,
      "offic": 1919,
      "teach": 1920,
      "##ction": 1921,
      "kidding": 1922,
      "resp": 1923,
      "leaving": 1924,
      "psych": 1925,
      "looked": 1926,
      "##ept": 1927,
      "Lou": 1928,
      "clear": 1929,
      "promise": 1930,
      "cover": 1931,
      "picture": 1932,
      "##ald": 1933,
      "bank": 1934,
      "Our": 1935,
      "Sw": 1936,
      "med": 1937,
      "##lish": 1938,
      "##uts": 1939,
      "Dan": 1940,
      "ought": 1941,
      "##not": 1942,
      "imag": 1943,
      "fix": 1944,
      "##gan": 1945,
      "##ik": 1946,
      "lock": 1947,
      "fil": 1948,
      "##iam": 1949,
      "##ency": 1950,
      "##over": 1951,
      "worked": 1952,
      "##amed": 1953,
      "Shit": 1954,
      "train": 1955,
      "pat": 1956,
      "questions": 1957,
      "land": 1958,
      "##ession": 1959,
      "special": 1960,
      "dark": 1961,
      "##ric": 1962,
      "From": 1963,
      "control": 1964,
      "pos": 1965,
      "Sm": 1966,
      "sometimes": 1967,
      "Comm": 1968,
      "'?": 1969,
      "Bet": 1970,
      "cond": 1971,
      "protect": 1972,
      "save": 1973,
      "Doctor": 1974,
      "parents": 1975,
      "##oul": 1976,
      "carry": 1977,
      "##stem": 1978,
      "##irt": 1979,
      "Didn": 1980,
      "disapp": 1981,
      "coff": 1982,
      "Everything": 1983,
      "interested": 1984,
      "Wal": 1985,
      "Max": 1986,
      "words": 1987,
      "wonderful": 1988,
      "##ized": 1989,
      "Dav": 1990,
      "First": 1991,
      "aff": 1992,
      "personal": 1993,
      "Isn": 1994,
      "hospital": 1995,
      "pub": 1996,
      "##oose": 1997,
      "white": 1998,
      "pleas": 1999,
      "star": 2000,
      "##ature": 2001,
      "mag": 2002,
      "begin": 2003,
      "prof": 2004,
      "Rob": 2005,
      "##esides": 2006,
      "##idence": 2007,
      "##ants": 2008,
      "company": 2009,
      "ru": 2010,
      "##ern": 2011,
      "laugh": 2012,
      "oper": 2013,
      "##ze": 2014,
      "##oud": 2015,
      "playing": 2016,
      "##reen": 2017,
      "lucky": 2018,
      "?...": 2019,
      "state": 2020,
      "works": 2021,
      "poor": 2022,
      "cool": 2023,
      "dire": 2024,
      "squ": 2025,
      "calling": 2026,
      "priv": 2027,
      "##solutely": 2028,
      "street": 2029,
      "fre": 2030,
      "##zz": 2031,
      "##ones": 2032,
      "rep": 2033,
      "##selves": 2034,
      "Excuse": 2035,
      "##ately": 2036,
      "##iddle": 2037,
      "##ced": 2038,
      "##ision": 2039,
      "ride": 2040,
      "wall": 2041,
      "sus": 2042,
      "##vin": 2043,
      "Big": 2044,
      "treat": 2045,
      "##jor": 2046,
      "##fer": 2047,
      "##ists": 2048,
      "felt": 2049,
      "##alm": 2050,
      "Nick": 2051,
      "People": 2052,
      "meant": 2053,
      "Three": 2054,
      "apartment": 2055,
      "pur": 2056,
      "drug": 2057,
      "Mart": 2058,
      "marry": 2059,
      "Che": 2060,
      "Those": 2061,
      "spend": 2062,
      "invol": 2063,
      "Daddy": 2064,
      "Mc": 2065,
      "##ows": 2066,
      "doin": 2067,
      "##br": 2068,
      "##erry": 2069,
      "date": 2070,
      "kiss": 2071,
      "stick": 2072,
      "clock": 2073,
      "##ship": 2074,
      "Call": 2075,
      "Gra": 2076,
      "fly": 2077,
      "others": 2078,
      "attack": 2079,
      "talked": 2080,
      "grow": 2081,
      "Alright": 2082,
      "Mother": 2083,
      "bas": 2084,
      "smart": 2085,
      "system": 2086,
      "Jeff": 2087,
      "Gen": 2088,
      "sal": 2089,
      "##arr": 2090,
      "outta": 2091,
      "##ift": 2092,
      "respect": 2093,
      "city": 2094,
      "En": 2095,
      "Keep": 2096,
      "##ines": 2097,
      "cannot": 2098,
      "meeting": 2099,
      "ow": 2100,
      "##joy": 2101,
      "quick": 2102,
      "music": 2103,
      "Em": 2104,
      "oh": 2105,
      "Joe": 2106,
      "Ha": 2107,
      "Think": 2108,
      "Mich": 2109,
      "bag": 2110,
      "takes": 2111,
      "press": 2112,
      "##ode": 2113,
      "cost": 2114,
      "##co": 2115,
      "worse": 2116,
      "destr": 2117,
      "La": 2118,
      "seeing": 2119,
      "fair": 2120,
      "##ances": 2121,
      "nine": 2122,
      "##uation": 2123,
      "##ills": 2124,
      "hotel": 2125,
      "##inger": 2126,
      "tot": 2127,
      "cloth": 2128,
      "top": 2129,
      "##ently": 2130,
      "near": 2131,
      "shall": 2132,
      "fault": 2133,
      "##ball": 2134,
      "turned": 2135,
      "Boy": 2136,
      "red": 2137,
      "ty": 2138,
      "##terday": 2139,
      "##arling": 2140,
      "##yn": 2141,
      "coffee": 2142,
      "David": 2143,
      "##ael": 2144,
      "##ities": 2145,
      "Charlie": 2146,
      "Nice": 2147,
      "mention": 2148,
      "##ives": 2149,
      "become": 2150,
      "loved": 2151,
      "##iot": 2152,
      "##vern": 2153,
      "worried": 2154,
      "##ross": 2155,
      "eye": 2156,
      "giving": 2157,
      "simple": 2158,
      "##ific": 2159,
      "swear": 2160,
      "handle": 2161,
      "##irth": 2162,
      "Sometimes": 2163,
      "OK": 2164,
      "##illy": 2165,
      "##bor": 2166,
      "##ided": 2167,
      "Whatever": 2168,
      "Forget": 2169,
      "Col": 2170,
      "feet": 2171,
      "##oof": 2172,
      "Anything": 2173,
      "##ged": 2174,
      "##ead": 2175,
      "road": 2176,
      "consider": 2177,
      "paper": 2178,
      "Car": 2179,
      "Ind": 2180,
      "##--------": 2181,
      "Mister": 2182,
      "paid": 2183,
      "##lo": 2184,
      "fucked": 2185,
      "clothes": 2186,
      "kick": 2187,
      "##AT": 2188,
      "difference": 2189,
      "##ander": 2190,
      "lawy": 2191,
      "bullshit": 2192,
      "mistake": 2193,
      "cops": 2194,
      "ups": 2195,
      "short": 2196,
      "choice": 2197,
      "##ully": 2198,
      "Ray": 2199,
      "##vious": 2200,
      "sold": 2201,
      "Michael": 2202,
      "Par": 2203,
      "breat": 2204,
      "cry": 2205,
      "##ues": 2206,
      "conv": 2207,
      "strong": 2208,
      "plane": 2209,
      "bucks": 2210,
      "caught": 2211,
      "ones": 2212,
      "changed": 2213,
      "Rose": 2214,
      "Remember": 2215,
      "##ench": 2216,
      "Act": 2217,
      "##ism": 2218,
      "##earch": 2219,
      "American": 2220,
      "kept": 2221,
      "##vers": 2222,
      "reach": 2223,
      "##ette": 2224,
      "Walter": 2225,
      "NO": 2226,
      "ran": 2227,
      "smell": 2228,
      "creat": 2229,
      "##ury": 2230,
      "information": 2231,
      "mis": 2232,
      "##ories": 2233,
      "invest": 2234,
      "tele": 2235,
      "assh": 2236,
      "Fl": 2237,
      "##cri": 2238,
      "##ON": 2239,
      "return": 2240,
      "doubt": 2241,
      "mach": 2242,
      "middle": 2243,
      "##esh": 2244,
      "##elve": 2245,
      "liked": 2246,
      "ra": 2247,
      "Cause": 2248,
      "tick": 2249,
      "##nes": 2250,
      "##erve": 2251,
      "##ages": 2252,
      "bath": 2253,
      "##ney": 2254,
      "given": 2255,
      "fut": 2256,
      "Damn": 2257,
      "Four": 2258,
      "gent": 2259,
      "##gn": 2260,
      "##rey": 2261,
      "Dick": 2262,
      "hung": 2263,
      "tough": 2264,
      "except": 2265,
      "quit": 2266,
      "busy": 2267,
      "honest": 2268,
      "deep": 2269,
      "Put": 2270,
      "##ina": 2271,
      "drunk": 2272,
      "Sid": 2273,
      "sake": 2274,
      "##go": 2275,
      "prog": 2276,
      "suit": 2277,
      "bast": 2278,
      "jo": 2279,
      "rich": 2280,
      "##ders": 2281,
      "##reci": 2282,
      "prison": 2283,
      "longer": 2284,
      "strange": 2285,
      "##ma": 2286,
      "serv": 2287,
      "boat": 2288,
      "lying": 2289,
      "pract": 2290,
      "##ored": 2291,
      "enjoy": 2292,
      "##itive": 2293,
      "##une": 2294,
      "foot": 2295,
      "hop": 2296,
      "jump": 2297,
      "##lex": 2298,
      "##ular": 2299,
      "!!!": 2300,
      "brain": 2301,
      "Bu": 2302,
      "terrible": 2303,
      "happening": 2304,
      "sounds": 2305,
      "##ls": 2306,
      "clos": 2307,
      "##bye": 2308,
      "Try": 2309,
      "born": 2310,
      "cent": 2311,
      "##ces": 2312,
      "##AN": 2313,
      "##ilt": 2314,
      "hasn": 2315,
      "yesterday": 2316,
      "figured": 2317,
      "Lea": 2318,
      "div": 2319,
      "cab": 2320,
      "ill": 2321,
      "lunch": 2322,
      "##ping": 2323,
      "mark": 2324,
      "involved": 2325,
      "pack": 2326,
      "##cess": 2327,
      "##ety": 2328,
      "anywhere": 2329,
      "##ili": 2330,
      "situation": 2331,
      "##oken": 2332,
      "birth": 2333,
      "##istory": 2334,
      "court": 2335,
      "respons": 2336,
      "TV": 2337,
      "##used": 2338,
      "fear": 2339,
      "knock": 2340,
      "future": 2341,
      "Kn": 2342,
      "coun": 2343,
      "pen": 2344,
      "##orth": 2345,
      "Make": 2346,
      "Someone": 2347,
      "floor": 2348,
      "Everybody": 2349,
      "ris": 2350,
      "##ming": 2351,
      "appreci": 2352,
      "Peter": 2353,
      "dangerous": 2354,
      "broke": 2355,
      "moving": 2356,
      "destroy": 2357,
      "sat": 2358,
      "##bed": 2359,
      "los": 2360,
      "##ster": 2361,
      "##nect": 2362,
      "##bers": 2363,
      "store": 2364,
      "burn": 2365,
      "##ov": 2366,
      "##ission": 2367,
      "problems": 2368,
      "Jimmy": 2369,
      "English": 2370,
      "ed": 2371,
      "##com": 2372,
      "truck": 2373,
      "Johnny": 2374,
      "Out": 2375,
      "??": 2376,
      "Pro": 2377,
      "jail": 2378,
      "##els": 2379,
      "careful": 2380,
      "trip": 2381,
      "public": 2382,
      "Besides": 2383,
      "##eace": 2384,
      "watching": 2385,
      "THE": 2386,
      "er": 2387,
      "sun": 2388,
      "killing": 2389,
      "entire": 2390,
      "Sal": 2391,
      "weird": 2392,
      "##unn": 2393,
      "upset": 2394,
      "##iol": 2395,
      "##oid": 2396,
      "##ute": 2397,
      "##ments": 2398,
      "early": 2399,
      "anim": 2400,
      "##ational": 2401,
      "realize": 2402,
      "box": 2403,
      "Perhaps": 2404,
      "Carl": 2405,
      "Too": 2406,
      "sitting": 2407,
      "##yle": 2408,
      "Father": 2409,
      "##idge": 2410,
      "##urity": 2411,
      "cash": 2412,
      "##LL": 2413,
      "##ots": 2414,
      "slow": 2415,
      "completely": 2416,
      "##uring": 2417,
      "Edd": 2418,
      "Jake": 2419,
      "pop": 2420,
      "##ray": 2421,
      "step": 2422,
      "sho": 2423,
      "19": 2424,
      "bust": 2425,
      "occ": 2426,
      "##bo": 2427,
      "nothin": 2428,
      "##urs": 2429,
      "##stairs": 2430,
      "##aine": 2431,
      "letter": 2432,
      "##ervous": 2433,
      "needed": 2434,
      "##ache": 2435,
      "bott": 2436,
      "##aces": 2437,
      "piss": 2438,
      "ring": 2439,
      "##ror": 2440,
      "##ective": 2441,
      "possib": 2442,
      "King": 2443,
      "Should": 2444,
      "list": 2445,
      "wit": 2446,
      "glass": 2447,
      "discuss": 2448,
      "##noon": 2449,
      "quiet": 2450,
      "General": 2451,
      "boss": 2452,
      "Te": 2453,
      "##imin": 2454,
      "##ume": 2455,
      "calls": 2456,
      "kinda": 2457,
      "radio": 2458,
      "private": 2459,
      "Cal": 2460,
      "Fred": 2461,
      "James": 2462,
      "War": 2463,
      "form": 2464,
      "building": 2465,
      "Mor": 2466,
      "##iter": 2467,
      "chick": 2468,
      "certainly": 2469,
      "##ege": 2470,
      "dev": 2471,
      "sev": 2472,
      "evening": 2473,
      "##ru": 2474,
      "Six": 2475,
      "mot": 2476,
      "ang": 2477,
      "belong": 2478,
      "Mike": 2479,
      "Sher": 2480,
      "##ron": 2481,
      "super": 2482,
      "cross": 2483,
      "##tin": 2484,
      "afternoon": 2485,
      "arrest": 2486,
      "Alex": 2487,
      "miles": 2488,
      "##erm": 2489,
      "##rie": 2490,
      "##lfriend": 2491,
      "team": 2492,
      "Bel": 2493,
      "interesting": 2494,
      "Bo": 2495,
      "##ky": 2496,
      "window": 2497,
      "Sch": 2498,
      "##to": 2499,
      "##oph": 2500,
      "sudd": 2501,
      "##udge": 2502,
      "arm": 2503,
      "sudden": 2504,
      "Hold": 2505,
      "ble": 2506,
      "cir": 2507,
      "history": 2508,
      "adm": 2509,
      "books": 2510,
      "proper": 2511,
      "Actually": 2512,
      "More": 2513,
      "dem": 2514,
      "picked": 2515,
      "likes": 2516,
      "opp": 2517,
      "##night": 2518,
      "loc": 2519,
      "self": 2520,
      "finished": 2521,
      "Mac": 2522,
      "bought": 2523,
      "##ium": 2524,
      "##urch": 2525,
      "killer": 2526,
      "owe": 2527,
      "esc": 2528,
      "rob": 2529,
      "unless": 2530,
      "account": 2531,
      "lay": 2532,
      "##oly": 2533,
      "##how": 2534,
      "imagine": 2535,
      "dig": 2536,
      "eff": 2537,
      "##ices": 2538,
      "##aint": 2539,
      "staying": 2540,
      "stopped": 2541,
      "forty": 2542,
      "decided": 2543,
      "cig": 2544,
      "Gl": 2545,
      "Sen": 2546,
      "##ino": 2547,
      "##alth": 2548,
      "sol": 2549,
      "screw": 2550,
      "girlfriend": 2551,
      "Son": 2552,
      "##mas": 2553,
      "lived": 2554,
      "message": 2555,
      "Eddie": 2556,
      "Ser": 2557,
      "bout": 2558,
      "dance": 2559,
      "nervous": 2560,
      "Anyway": 2561,
      "Ell": 2562,
      "##che": 2563,
      "##lcome": 2564,
      "steal": 2565,
      "Prob": 2566,
      "table": 2567,
      "disappear": 2568,
      "lawyer": 2569,
      "gentlem": 2570,
      "bomb": 2571,
      "##ring": 2572,
      "thr": 2573,
      "beg": 2574,
      "asshole": 2575,
      "##uke": 2576,
      "##cent": 2577,
      "##fully": 2578,
      "##tact": 2579,
      "across": 2580,
      "visit": 2581,
      ">?": 2582,
      "none": 2583,
      "##RE": 2584,
      "##ogra": 2585,
      "comput": 2586,
      "Eve": 2587,
      "Mon": 2588,
      "tast": 2589,
      "tape": 2590,
      "threat": 2591,
      "gotten": 2592,
      "Mad": 2593,
      "eh": 2594,
      "##atic": 2595,
      "neigh": 2596,
      "Cla": 2597,
      "pictures": 2598,
      "Sec": 2599,
      "White": 2600,
      "eng": 2601,
      "fifteen": 2602,
      "##vernment": 2603,
      "appreciate": 2604,
      "Five": 2605,
      "shop": 2606,
      "Christmas": 2607,
      "##ened": 2608,
      "somethin": 2609,
      "wrote": 2610,
      "card": 2611,
      "named": 2612,
      "twelve": 2613,
      "##cially": 2614,
      "bunch": 2615,
      "Stay": 2616,
      "sett": 2617,
      "##gue": 2618,
      "##ann": 2619,
      "##enn": 2620,
      "##ask": 2621,
      "Lord": 2622,
      "ear": 2623,
      "Holl": 2624,
      "fat": 2625,
      "ground": 2626,
      "soul": 2627,
      "##und": 2628,
      "##etic": 2629,
      "allow": 2630,
      "##ipped": 2631,
      "Russ": 2632,
      "Sim": 2633,
      "pal": 2634,
      "##CK": 2635,
      "station": 2636,
      "emb": 2637,
      "##ugg": 2638,
      "forgot": 2639,
      "Last": 2640,
      "##iment": 2641,
      "contact": 2642,
      "accept": 2643,
      "Mer": 2644,
      "gold": 2645,
      "missing": 2646,
      "present": 2647,
      "bastard": 2648,
      "bird": 2649,
      "voice": 2650,
      "weap": 2651,
      "##riage": 2652,
      "prod": 2653,
      "prove": 2654,
      "##ING": 2655,
      "##vy": 2656,
      "god": 2657,
      "hadn": 2658,
      "impress": 2659,
      "val": 2660,
      "requ": 2661,
      "stri": 2662,
      "##tern": 2663,
      "Aren": 2664,
      "Louis": 2665,
      "Ted": 2666,
      "Want": 2667,
      "tre": 2668,
      "wearing": 2669,
      "##rect": 2670,
      "park": 2671,
      "Ste": 2672,
      "standing": 2673,
      "instead": 2674,
      "dumb": 2675,
      "mod": 2676,
      "main": 2677,
      "perhaps": 2678,
      "driving": 2679,
      "witness": 2680,
      "circ": 2681,
      "fol": 2682,
      "fish": 2683,
      "vict": 2684,
      "lim": 2685,
      "enter": 2686,
      "moved": 2687,
      "apolog": 2688,
      "age": 2689,
      "##inite": 2690,
      "listening": 2691,
      "!?": 2692,
      ">...": 2693,
      "cell": 2694,
      "gar": 2695,
      "ice": 2696,
      "##ians": 2697,
      "hungry": 2698,
      "##ether": 2699,
      "##ules": 2700,
      "finally": 2701,
      "college": 2702,
      "Must": 2703,
      "##xic": 2704,
      "##etch": 2705,
      "sugg": 2706,
      "obvious": 2707,
      "dam": 2708,
      "wake": 2709,
      "##uel": 2710,
      "##iding": 2711,
      "##pped": 2712,
      "nose": 2713,
      "suggest": 2714,
      "connect": 2715,
      "Looks": 2716,
      "putting": 2717,
      "French": 2718,
      "appear": 2719,
      "Somebody": 2720,
      "charge": 2721,
      "join": 2722,
      "Buddy": 2723,
      "Cor": 2724,
      "mil": 2725,
      "peace": 2726,
      "space": 2727,
      "prep": 2728,
      "Cr": 2729,
      "dying": 2730,
      "sad": 2731,
      "##pin": 2732,
      "##ination": 2733,
      "##ana": 2734,
      "##ossible": 2735,
      "missed": 2736,
      "Aw": 2737,
      "field": 2738,
      "##eng": 2739,
      "inn": 2740,
      "board": 2741,
      "deliver": 2742,
      "ca": 2743,
      "fail": 2744,
      "Once": 2745,
      "third": 2746,
      "spl": 2747,
      "Leave": 2748,
      "cigar": 2749,
      "joke": 2750,
      "##ieve": 2751,
      "suck": 2752,
      "saved": 2753,
      "roll": 2754,
      "norm": 2755,
      "##te": 2756,
      "##enny": 2757,
      "Chief": 2758,
      "##uthor": 2759,
      "commun": 2760,
      "Lie": 2761,
      "hide": 2762,
      "tem": 2763,
      "##iday": 2764,
      "enem": 2765,
      "attention": 2766,
      "Del": 2767,
      "Sus": 2768,
      "lad": 2769,
      "tur": 2770,
      "##view": 2771,
      "Red": 2772,
      "##ffic": 2773,
      "idiot": 2774,
      "Bull": 2775,
      "cas": 2776,
      "##ires": 2777,
      "hero": 2778,
      "phot": 2779,
      "Black": 2780,
      "totally": 2781,
      "machine": 2782,
      "bill": 2783,
      "wed": 2784,
      "hardly": 2785,
      "gives": 2786,
      "horse": 2787,
      "Hon": 2788,
      "Most": 2789,
      "Norm": 2790,
      "cat": 2791,
      "blame": 2792,
      "America": 2793,
      "daddy": 2794,
      "Rich": 2795,
      "viol": 2796,
      "##ogn": 2797,
      "fill": 2798,
      "##friend": 2799,
      "stuck": 2800,
      "##ends": 2801,
      "ways": 2802,
      "Still": 2803,
      "crime": 2804,
      "travel": 2805,
      "address": 2806,
      "direct": 2807,
      "camp": 2808,
      "percent": 2809,
      "##mmer": 2810,
      "##avy": 2811,
      "Exactly": 2812,
      "service": 2813,
      "Jew": 2814,
      "##work": 2815,
      "excuse": 2816,
      "##OR": 2817,
      "##uty": 2818,
      "awful": 2819,
      "pleasure": 2820,
      "beginning": 2821,
      "mir": 2822,
      "army": 2823,
      "##ardon": 2824,
      "##ify": 2825,
      "mov": 2826,
      "Everyone": 2827,
      "surv": 2828,
      "##hood": 2829,
      "##reed": 2830,
      "hurry": 2831,
      "honor": 2832,
      "draw": 2833,
      "program": 2834,
      "movies": 2835,
      "equ": 2836,
      "##amer": 2837,
      "neck": 2838,
      "Before": 2839,
      "William": 2840,
      "##pecially": 2841,
      "dreams": 2842,
      "papers": 2843,
      "Hmm": 2844,
      "earth": 2845,
      "##ai": 2846,
      "##ruct": 2847,
      "suspect": 2848,
      "Cra": 2849,
      "Love": 2850,
      "eas": 2851,
      "##bit": 2852,
      "experience": 2853,
      "Pat": 2854,
      "av": 2855,
      "tor": 2856,
      "loves": 2857,
      "seconds": 2858,
      "Probably": 2859,
      "##owers": 2860,
      "pray": 2861,
      "talkin": 2862,
      "relation": 2863,
      "##uten": 2864,
      "birthday": 2865,
      "king": 2866,
      "##EN": 2867,
      "##icult": 2868,
      "##ille": 2869,
      "comfort": 2870,
      "rock": 2871,
      "partner": 2872,
      "Ann": 2873,
      "promised": 2874,
      "##iculous": 2875,
      "surprise": 2876,
      "Were": 2877,
      "##gu": 2878,
      "neg": 2879,
      "##aged": 2880,
      "investig": 2881,
      "Wor": 2882,
      "cook": 2883,
      "nuts": 2884,
      "##cer": 2885,
      "##ager": 2886,
      "type": 2887,
      "cred": 2888,
      "##pens": 2889,
      "single": 2890,
      "darling": 2891,
      "vir": 2892,
      "##icide": 2893,
      "share": 2894,
      "marriage": 2895,
      "##attle": 2896,
      "Wow": 2897,
      "push": 2898,
      "##iced": 2899,
      "Godd": 2900,
      "walking": 2901,
      "Bea": 2902,
      "Sounds": 2903,
      "la": 2904,
      "beer": 2905,
      "##rick": 2906,
      "blue": 2907,
      "boyfriend": 2908,
      "phys": 2909,
      "fighting": 2910,
      "Paris": 2911,
      "silly": 2912,
      "absolutely": 2913,
      "##ries": 2914,
      "club": 2915,
      "reading": 2916,
      "evidence": 2917,
      "##fuck": 2918,
      "orders": 2919,
      "exam": 2920,
      "trick": 2921,
      "elect": 2922,
      "Watch": 2923,
      "fur": 2924,
      "natur": 2925,
      "##AR": 2926,
      "usually": 2927,
      "Billy": 2928,
      "divor": 2929,
      "Cour": 2930,
      "sens": 2931,
      "vac": 2932,
      "##bur": 2933,
      "fort": 2934,
      "notice": 2935,
      "asleep": 2936,
      "##ified": 2937,
      "plans": 2938,
      "recogn": 2939,
      "Co": 2940,
      "base": 2941,
      "song": 2942,
      "broken": 2943,
      "##arsh": 2944,
      "wondering": 2945,
      "##utenant": 2946,
      "Back": 2947,
      "##urt": 2948,
      "pret": 2949,
      "block": 2950,
      "##place": 2951,
      "emp": 2952,
      "position": 2953,
      "Mo": 2954,
      "##ye": 2955,
      "load": 2956,
      "security": 2957,
      "Twenty": 2958,
      "obs": 2959,
      "computer": 2960,
      "##ica": 2961,
      "amaz": 2962,
      "mission": 2963,
      "extra": 2964,
      "##oles": 2965,
      "appro": 2966,
      "guns": 2967,
      "Doesn": 2968,
      "wedding": 2969,
      "Gee": 2970,
      "Jul": 2971,
      "gift": 2972,
      "##eas": 2973,
      "exist": 2974,
      "##cious": 2975,
      "difficult": 2976,
      "ridiculous": 2977,
      "Since": 2978,
      "Ten": 2979,
      "cow": 2980,
      "##ius": 2981,
      "##ering": 2982,
      "Help": 2983,
      "##roup": 2984,
      "acting": 2985,
      "Major": 2986,
      "drugs": 2987,
      "##initely": 2988,
      "relationship": 2989,
      "Dep": 2990,
      "hook": 2991,
      "rent": 2992,
      "##alent": 2993,
      "##onel": 2994,
      "spec": 2995,
      "quar": 2996,
      "track": 2997,
      "folks": 2998,
      "innoc": 2999,
      "City": 3000,
      "Hal": 3001,
      "fit": 3002,
      "fired": 3003,
      "lar": 3004,
      "##uit": 3005,
      "##ara": 3006,
      "admit": 3007,
      "evil": 3008,
      "West": 3009,
      "##ele": 3010,
      "##eth": 3011,
      "##ending": 3012,
      "##ended": 3013,
      "spent": 3014,
      "level": 3015,
      "writing": 3016,
      "memory": 3017,
      "Ro": 3018,
      "dollar": 3019,
      "surprised": 3020,
      "Fed": 3021,
      "Honey": 3022,
      "WH": 3023,
      "##otion": 3024,
      "ourselves": 3025,
      "relax": 3026,
      "Grand": 3027,
      "Ter": 3028,
      "##ution": 3029,
      "agree": 3030,
      "##oking": 3031,
      "film": 3032,
      "risk": 3033,
      "##ograph": 3034,
      "normal": 3035,
      "Bab": 3036,
      "plenty": 3037,
      "names": 3038,
      "sil": 3039,
      "##read": 3040,
      "suff": 3041,
      "tells": 3042,
      "Better": 3043,
      "round": 3044,
      "tap": 3045,
      "##chn": 3046,
      "Mexic": 3047,
      "Cong": 3048,
      "Has": 3049,
      "jack": 3050,
      "##iant": 3051,
      "ste": 3052,
      "fright": 3053,
      "wild": 3054,
      "##cy": 3055,
      "##erk": 3056,
      "##ement": 3057,
      "starting": 3058,
      "fellow": 3059,
      "GO": 3060,
      "##zen": 3061,
      "polit": 3062,
      "Fin": 3063,
      "Rick": 3064,
      "buddy": 3065,
      "##ners": 3066,
      "##oring": 3067,
      "particul": 3068,
      "impossible": 3069,
      "neighbor": 3070,
      "Jerry": 3071,
      "##bb": 3072,
      "##iew": 3073,
      "twice": 3074,
      "##ploy": 3075,
      "records": 3076,
      "Pop": 3077,
      "est": 3078,
      "tight": 3079,
      "##boy": 3080,
      "##iny": 3081,
      "crap": 3082,
      "Dor": 3083,
      "Mag": 3084,
      "Tra": 3085,
      "Under": 3086,
      "dump": 3087,
      "finger": 3088,
      "##ral": 3089,
      "##aked": 3090,
      "keeps": 3091,
      "Charles": 3092,
      "Earth": 3093,
      "using": 3094,
      "officer": 3095,
      ">!": 3096,
      "Min": 3097,
      "feed": 3098,
      "low": 3099,
      "lab": 3100,
      "whether": 3101,
      "note": 3102,
      "##urse": 3103,
      "angry": 3104,
      "Ain": 3105,
      "Over": 3106,
      "##ET": 3107,
      "government": 3108,
      "##astic": 3109,
      "file": 3110,
      "...!": 3111,
      "##imme": 3112,
      "forever": 3113,
      "Thom": 3114,
      "guest": 3115,
      "feelings": 3116,
      "##appy": 3117,
      "collect": 3118,
      "Kill": 3119,
      "##irm": 3120,
      "herself": 3121,
      "##acy": 3122,
      "lots": 3123,
      "advice": 3124,
      "bathroom": 3125,
      "Ev": 3126,
      "Fif": 3127,
      "cust": 3128,
      "hole": 3129,
      "rules": 3130,
      "##esty": 3131,
      "organ": 3132,
      "smoke": 3133,
      "Eight": 3134,
      "gas": 3135,
      "##aff": 3136,
      "##mer": 3137,
      "##amb": 3138,
      "crimin": 3139,
      "Ask": 3140,
      "Pol": 3141,
      "bow": 3142,
      "##ien": 3143,
      "##oop": 3144,
      "##eech": 3145,
      "spot": 3146,
      "closed": 3147,
      "post": 3148,
      "Uncle": 3149,
      "forgive": 3150,
      "Bobby": 3151,
      "Dude": 3152,
      "##gar": 3153,
      "##hile": 3154,
      "##BI": 3155,
      "wash": 3156,
      "ant": 3157,
      "summer": 3158,
      "##ption": 3159,
      "Leon": 3160,
      "concer": 3161,
      "Roy": 3162,
      "search": 3163,
      "##ips": 3164,
      "attract": 3165,
      "correct": 3166,
      "Talk": 3167,
      "Up": 3168,
      "host": 3169,
      "##fast": 3170,
      "##itude": 3171,
      "planet": 3172,
      "victim": 3173,
      "San": 3174,
      "Sit": 3175,
      "dick": 3176,
      "mons": 3177,
      "crack": 3178,
      "seemed": 3179,
      "pulled": 3180,
      "Lieutenant": 3181,
      "Betty": 3182,
      "Hen": 3183,
      "loose": 3184,
      "odd": 3185,
      "##ox": 3186,
      "##ores": 3187,
      "necess": 3188,
      "exp": 3189,
      "Adm": 3190,
      "Det": 3191,
      "Hard": 3192,
      "Pre": 3193,
      "civ": 3194,
      "##heart": 3195,
      "##ender": 3196,
      "arri": 3197,
      "remind": 3198,
      "walked": 3199,
      "Tommy": 3200,
      "learned": 3201,
      "Mama": 3202,
      "##aven": 3203,
      "##vis": 3204,
      "##que": 3205,
      "stole": 3206,
      "Ital": 3207,
      "Guess": 3208,
      "Phil": 3209,
      "Believe": 3210,
      "Er": 3211,
      "Yah": 3212,
      "mix": 3213,
      "tax": 3214,
      "##wise": 3215,
      "##por": 3216,
      "##par": 3217,
      "##bs": 3218,
      "##ology": 3219,
      "##arrass": 3220,
      "FBI": 3221,
      "Little": 3222,
      "Um": 3223,
      "##wood": 3224,
      "often": 3225,
      "island": 3226,
      "stories": 3227,
      "spir": 3228,
      "intr": 3229,
      "feels": 3230,
      "##eeth": 3231,
      "Absolutely": 3232,
      "aut": 3233,
      "hom": 3234,
      "##ges": 3235,
      "contract": 3236,
      "Im": 3237,
      "Won": 3238,
      "##uly": 3239,
      "##IT": 3240,
      "##ountain": 3241,
      "Goodbye": 3242,
      "innocent": 3243,
      "Long": 3244,
      "Time": 3245,
      "danc": 3246,
      "##ging": 3247,
      "Star": 3248,
      "built": 3249,
      "holding": 3250,
      "##ivers": 3251,
      "embarrass": 3252,
      "harm": 3253,
      "sea": 3254,
      "##urance": 3255,
      "##andy": 3256,
      "price": 3257,
      "proud": 3258,
      "contin": 3259,
      "sleeping": 3260,
      "condition": 3261,
      "Ok": 3262,
      "sle": 3263,
      "##aa": 3264,
      "##rat": 3265,
      "##icated": 3266,
      "ann": 3267,
      "profession": 3268,
      "High": 3269,
      "rain": 3270,
      "force": 3271,
      "##arden": 3272,
      "places": 3273,
      "Doc": 3274,
      "##ished": 3275,
      "blind": 3276,
      "played": 3277,
      "Tomorrow": 3278,
      "Mic": 3279,
      "Sl": 3280,
      "##men": 3281,
      "##ishing": 3282,
      "##aper": 3283,
      "Always": 3284,
      "Except": 3285,
      "Lo": 3286,
      "tear": 3287,
      "##lor": 3288,
      "##iner": 3289,
      "##ining": 3290,
      "iss": 3291,
      "waste": 3292,
      "Sheriff": 3293,
      "Holly": 3294,
      "den": 3295,
      "gh": 3296,
      "##yl": 3297,
      "beach": 3298,
      "##ancy": 3299,
      "cute": 3300,
      "##otten": 3301,
      "locked": 3302,
      "patient": 3303,
      "Rel": 3304,
      "band": 3305,
      "crew": 3306,
      "opin": 3307,
      "##IS": 3308,
      "##ata": 3309,
      "weak": 3310,
      "succ": 3311,
      "##iforn": 3312,
      "convers": 3313,
      "detail": 3314,
      "Californ": 3315,
      "Hall": 3316,
      "camer": 3317,
      "view": 3318,
      "##ada": 3319,
      "worst": 3320,
      "church": 3321,
      "command": 3322,
      "Washing": 3323,
      "##unno": 3324,
      "Cle": 3325,
      "Old": 3326,
      "Ya": 3327,
      "hun": 3328,
      "##rible": 3329,
      "##ils": 3330,
      "charac": 3331,
      "skin": 3332,
      "Jean": 3333,
      "major": 3334,
      "Bullshit": 3335,
      "Washington": 3336,
      "Jun": 3337,
      "dirty": 3338,
      "egg": 3339,
      "##ham": 3340,
      "health": 3341,
      "welcome": 3342,
      "gettin": 3343,
      "author": 3344,
      "pot": 3345,
      "##ises": 3346,
      "breakfast": 3347,
      "credit": 3348,
      "##eat": 3349,
      "##vision": 3350,
      "##isf": 3351,
      "rece": 3352,
      "hey": 3353,
      "within": 3354,
      "neither": 3355,
      "area": 3356,
      "willing": 3357,
      "##ences": 3358,
      "California": 3359,
      "Fort": 3360,
      "Turn": 3361,
      "Us": 3362,
      "calm": 3363,
      "during": 3364,
      "dunno": 3365,
      "##ss": 3366,
      "hall": 3367,
      "corner": 3368,
      "App": 3369,
      "Mmm": 3370,
      "games": 3371,
      "nature": 3372,
      "##ES": 3373,
      "onto": 3374,
      "##essor": 3375,
      "##unny": 3376,
      "perform": 3377,
      "subject": 3378,
      "Colonel": 3379,
      "concerned": 3380,
      "Vict": 3381,
      "cast": 3382,
      "##fic": 3383,
      "##OO": 3384,
      "Andy": 3385,
      "scream": 3386,
      "pock": 3387,
      "support": 3388,
      "showed": 3389,
      "Danie": 3390,
      "IN": 3391,
      "hy": 3392,
      "teeth": 3393,
      "yell": 3394,
      "##res": 3395,
      "##ply": 3396,
      "##itten": 3397,
      "bro": 3398,
      "swim": 3399,
      "weekend": 3400,
      "Next": 3401,
      "color": 3402,
      "Martin": 3403,
      "ticket": 3404,
      "aud": 3405,
      "mid": 3406,
      "##ED": 3407,
      "##</": 3408,
      "##ades": 3409,
      "##olf": 3410,
      "lovely": 3411,
      "Bruce": 3412,
      "sym": 3413,
      "Smith": 3414,
      "##ength": 3415,
      "Rome": 3416,
      "##lly": 3417,
      "##amin": 3418,
      "keeping": 3419,
      "paying": 3420,
      "apart": 3421,
      "apologize": 3422,
      "match": 3423,
      "whe": 3424,
      "##ument": 3425,
      "cock": 3426,
      "Clar": 3427,
      "Laur": 3428,
      "split": 3429,
      "amazing": 3430,
      "Henry": 3431,
      "Jan": 3432,
      "da": 3433,
      "um": 3434,
      "wood": 3435,
      "##aim": 3436,
      "##rop": 3437,
      "intell": 3438,
      "drinking": 3439,
      "Scott": 3440,
      "Jeffrey": 3441,
      "taste": 3442,
      "!...": 3443,
      "Mill": 3444,
      "None": 3445,
      "Nah": 3446,
      "##ration": 3447,
      "##jesty": 3448,
      "agent": 3449,
      "scene": 3450,
      "taught": 3451,
      "##light": 3452,
      "##itor": 3453,
      "##ooper": 3454,
      "knowing": 3455,
      "##antic": 3456,
      "upstairs": 3457,
      "Street": 3458,
      "Another": 3459,
      "##ettes": 3460,
      "purp": 3461,
      "Sk": 3462,
      "cup": 3463,
      "##yond": 3464,
      "Nope": 3465,
      "proof": 3466,
      "const": 3467,
      "Pretty": 3468,
      "insane": 3469,
      "study": 3470,
      "settle": 3471,
      "Park": 3472,
      "Sant": 3473,
      "group": 3474,
      "pig": 3475,
      "rough": 3476,
      "stock": 3477,
      "##inda": 3478,
      "##bert": 3479,
      "common": 3480,
      "decide": 3481,
      "dropped": 3482,
      "gener": 3483,
      "training": 3484,
      "##----------------": 3485,
      "Goddamn": 3486,
      "Es": 3487,
      "##ero": 3488,
      "##ano": 3489,
      "##arry": 3490,
      "##enth": 3491,
      "State": 3492,
      "moon": 3493,
      "desert": 3494,
      "trial": 3495,
      "hanging": 3496,
      "Check": 3497,
      "breath": 3498,
      "empty": 3499,
      "IT": 3500,
      "lic": 3501,
      "##ford": 3502,
      "clim": 3503,
      "career": 3504,
      "lately": 3505,
      "##wards": 3506,
      "murdered": 3507,
      "Bur": 3508,
      "Other": 3509,
      "nin": 3510,
      "shock": 3511,
      "cars": 3512,
      "##izz": 3513,
      "crash": 3514,
      "favorite": 3515,
      "Senator": 3516,
      "code": 3517,
      "path": 3518,
      "sight": 3519,
      "##UT": 3520,
      "##itz": 3521,
      "forward": 3522,
      "##lyn": 3523,
      "Chin": 3524,
      "Robert": 3525,
      "enemy": 3526,
      "30": 3527,
      "fant": 3528,
      "mer": 3529,
      "pan": 3530,
      "##field": 3531,
      "heavy": 3532,
      "cheap": 3533,
      "department": 3534,
      "Bye": 3535,
      "curious": 3536,
      "Marty": 3537,
      "shoes": 3538,
      "Had": 3539,
      "sand": 3540,
      "heaven": 3541,
      "noticed": 3542,
      "Franc": 3543,
      "double": 3544,
      "South": 3545,
      "eating": 3546,
      "hat": 3547,
      "##iest": 3548,
      "##\"\"": 3549,
      "##iral": 3550,
      "##akin": 3551,
      "Grace": 3552,
      "Lee": 3553,
      "Same": 3554,
      "hiding": 3555,
      "lone": 3556,
      "##din": 3557,
      "##loy": 3558,
      "---": 3559,
      "##medi": 3560,
      "afford": 3561,
      "Richard": 3562,
      "Tri": 3563,
      "pil": 3564,
      "tree": 3565,
      "##ted": 3566,
      "##aring": 3567,
      "##itted": 3568,
      "discover": 3569,
      "responsible": 3570,
      "animal": 3571,
      "success": 3572,
      "Find": 3573,
      "rout": 3574,
      "size": 3575,
      "helped": 3576,
      "runs": 3577,
      "action": 3578,
      "brothers": 3579,
      "Wouldn": 3580,
      "Admiral": 3581,
      "civil": 3582,
      "judge": 3583,
      "##ein": 3584,
      "repr": 3585,
      "Stan": 3586,
      "immedi": 3587,
      "Show": 3588,
      "decision": 3589,
      "newsp": 3590,
      "simply": 3591,
      "complete": 3592,
      "losing": 3593,
      "Satur": 3594,
      "TO": 3595,
      "hired": 3596,
      "ign": 3597,
      "ori": 3598,
      "##ez": 3599,
      "##ka": 3600,
      "##ester": 3601,
      "soft": 3602,
      "turns": 3603,
      "famous": 3604,
      "farm": 3605,
      "possibly": 3606,
      "##rief": 3607,
      "Victor": 3608,
      "House": 3609,
      "Holy": 3610,
      "Rog": 3611,
      "bod": 3612,
      "pool": 3613,
      "##con": 3614,
      "##town": 3615,
      "itself": 3616,
      "lied": 3617,
      "##elly": 3618,
      "Soon": 3619,
      "Brother": 3620,
      "following": 3621,
      "##ergency": 3622,
      "'...": 3623,
      "Kid": 3624,
      "print": 3625,
      "##gel": 3626,
      "##ization": 3627,
      "heads": 3628,
      "seriously": 3629,
      "grab": 3630,
      "television": 3631,
      "opinion": 3632,
      "Saturday": 3633,
      "Ber": 3634,
      "Dave": 3635,
      "Li": 3636,
      "Miles": 3637,
      "Tod": 3638,
      "Van": 3639,
      "crow": 3640,
      "duty": 3641,
      "mama": 3642,
      "Things": 3643,
      "seat": 3644,
      "speech": 3645,
      "##roll": 3646,
      "prefer": 3647,
      "concern": 3648,
      "suddenly": 3649,
      "Way": 3650,
      "nurse": 3651,
      "##ares": 3652,
      "##usion": 3653,
      "client": 3654,
      "##aced": 3655,
      "##angu": 3656,
      "desk": 3657,
      "##iliar": 3658,
      "Ger": 3659,
      "Veg": 3660,
      "due": 3661,
      "wine": 3662,
      "##aur": 3663,
      "##oned": 3664,
      "##asc": 3665,
      "##rage": 3666,
      "##igg": 3667,
      "##ulations": 3668,
      "starts": 3669,
      "ideas": 3670,
      "warm": 3671,
      "Thomas": 3672,
      "character": 3673,
      "dry": 3674,
      "##asons": 3675,
      "##ilty": 3676,
      "flight": 3677,
      "Army": 3678,
      "legs": 3679,
      "raise": 3680,
      "natural": 3681,
      "vacation": 3682,
      "lonely": 3683,
      "laid": 3684,
      "##ees": 3685,
      "##ule": 3686,
      "##line": 3687,
      "beyond": 3688,
      "##stood": 3689,
      "##unity": 3690,
      "Art": 3691,
      "susp": 3692,
      "Prof": 3693,
      "conversation": 3694,
      "Bad": 3695,
      "cous": 3696,
      "##eds": 3697,
      "deg": 3698,
      "champ": 3699,
      "guard": 3700,
      "comin": 3701,
      "Friday": 3702,
      "greatest": 3703,
      "techn": 3704,
      "##000": 3705,
      "passed": 3706,
      "Blue": 3707,
      "keys": 3708,
      "Aye": 3709,
      "##time": 3710,
      "##ered": 3711,
      "##othy": 3712,
      "##itchen": 3713,
      "##ibility": 3714,
      "Agent": 3715,
      "large": 3716,
      "Cent": 3717,
      "Lond": 3718,
      "ME": 3719,
      "pin": 3720,
      "##ena": 3721,
      "stre": 3722,
      "##ila": 3723,
      "letters": 3724,
      "interview": 3725,
      "Sund": 3726,
      "##ealous": 3727,
      "satisf": 3728,
      "introd": 3729,
      "rub": 3730,
      "##ki": 3731,
      "##ville": 3732,
      "##icle": 3733,
      "##stein": 3734,
      "##rian": 3735,
      "sword": 3736,
      "switch": 3737,
      "familiar": 3738,
      "London": 3739,
      "Que": 3740,
      "pounds": 3741,
      "##iat": 3742,
      "##ality": 3743,
      "lookin": 3744,
      "hello": 3745,
      "Brit": 3746,
      "##orney": 3747,
      "checked": 3748,
      "Dou": 3749,
      "Gord": 3750,
      "Lloy": 3751,
      "ah": 3752,
      "jealous": 3753,
      "langu": 3754,
      "und": 3755,
      "##AA": 3756,
      "bigger": 3757,
      "ident": 3758,
      "##iction": 3759,
      "matters": 3760,
      "incl": 3761,
      "Lloyd": 3762,
      "##ground": 3763,
      "##rate": 3764,
      "##rem": 3765,
      "spoke": 3766,
      "employ": 3767,
      "hearing": 3768,
      "##velop": 3769,
      "hoping": 3770,
      "further": 3771,
      "ghost": 3772,
      "Bra": 3773,
      "Day": 3774,
      "Mark": 3775,
      "vide": 3776,
      "held": 3777,
      "butt": 3778,
      "whose": 3779,
      "deserve": 3780,
      "event": 3781,
      "opport": 3782,
      "Dorothy": 3783,
      "custom": 3784,
      "Vegas": 3785,
      "Sunday": 3786,
      "bat": 3787,
      "##mission": 3788,
      "##ites": 3789,
      "themselves": 3790,
      "##idden": 3791,
      "Haven": 3792,
      "Mexico": 3793,
      "bodies": 3794,
      "Green": 3795,
      "##af": 3796,
      "##gest": 3797,
      "##ID": 3798,
      "nightm": 3799,
      "assist": 3800,
      "Aust": 3801,
      "Luc": 3802,
      "Mur": 3803,
      "green": 3804,
      "rom": 3805,
      "##imate": 3806,
      "##iring": 3807,
      "##osh": 3808,
      "##ula": 3809,
      "guilty": 3810,
      "motherfuck": 3811,
      "Majesty": 3812,
      "Comp": 3813,
      "kitchen": 3814,
      "nail": 3815,
      "til": 3816,
      "##gly": 3817,
      "##min": 3818,
      "##lect": 3819,
      "heat": 3820,
      "cares": 3821,
      "claim": 3822,
      "##udd": 3823,
      "scare": 3824,
      "Brad": 3825,
      "shooting": 3826,
      "magic": 3827,
      "purpose": 3828,
      "Cas": 3829,
      "Ir": 3830,
      "##UCK": 3831,
      "##iling": 3832,
      "suicide": 3833,
      "somehow": 3834,
      "copy": 3835,
      "Harold": 3836,
      "numbers": 3837,
      "perfectly": 3838,
      "seventy": 3839,
      "Jason": 3840,
      "Ken": 3841,
      "pu": 3842,
      "tie": 3843,
      "##OM": 3844,
      "plant": 3845,
      "bridge": 3846,
      "insurance": 3847,
      "answers": 3848,
      "medical": 3849,
      "Buzz": 3850,
      "Hur": 3851,
      "Law": 3852,
      "Sn": 3853,
      "master": 3854,
      "tar": 3855,
      "##cha": 3856,
      "Hel": 3857,
      "##essed": 3858,
      "fresh": 3859,
      "##aker": 3860,
      "expens": 3861,
      "remain": 3862,
      "sixty": 3863,
      "Trust": 3864,
      "England": 3865,
      "recognize": 3866,
      "AN": 3867,
      "HE": 3868,
      "Wil": 3869,
      "pants": 3870,
      "writer": 3871,
      "Super": 3872,
      "bottle": 3873,
      "Norman": 3874,
      "pocket": 3875,
      "Part": 3876,
      "jour": 3877,
      "river": 3878,
      "##nal": 3879,
      "##let": 3880,
      "weight": 3881,
      "older": 3882,
      "shows": 3883,
      "magaz": 3884,
      "freak": 3885,
      "comfortable": 3886,
      "Cut": 3887,
      "Rom": 3888,
      "Wes": 3889,
      "cards": 3890,
      "talent": 3891,
      "##tle": 3892,
      "##inct": 3893,
      "pregn": 3894,
      "fella": 3895,
      "sweetheart": 3896,
      "gentleman": 3897,
      "Nor": 3898,
      "Work": 3899,
      "Yep": 3900,
      "borrow": 3901,
      "van": 3902,
      "wound": 3903,
      "##gie": 3904,
      "##istic": 3905,
      "usual": 3906,
      "arms": 3907,
      "nights": 3908,
      "assign": 3909,
      "Dead": 3910,
      "##uction": 3911,
      "definitely": 3912,
      "escape": 3913,
      "request": 3914,
      "spirit": 3915,
      "Life": 3916,
      "rap": 3917,
      "becom": 3918,
      "##icy": 3919,
      "##ellent": 3920,
      "##anks": 3921,
      "Str": 3922,
      "believed": 3923,
      "##rog": 3924,
      "excited": 3925,
      "Supp": 3926,
      "horrible": 3927,
      "Ry": 3928,
      "lines": 3929,
      "rat": 3930,
      "##came": 3931,
      "##bing": 3932,
      "##using": 3933,
      "Thirty": 3934,
      "scient": 3935,
      "expert": 3936,
      "blew": 3937,
      "property": 3938,
      "criminal": 3939,
      "11": 3940,
      "DO": 3941,
      "Jac": 3942,
      "Mm": 3943,
      "Ver": 3944,
      "dise": 3945,
      "garden": 3946,
      "hors": 3947,
      "tour": 3948,
      "ur": 3949,
      "wise": 3950,
      "##ising": 3951,
      "sees": 3952,
      "goodbye": 3953,
      "##ago": 3954,
      "scr": 3955,
      "##azz": 3956,
      "brains": 3957,
      "carrying": 3958,
      "##board": 3959,
      "camera": 3960,
      "repres": 3961,
      "10": 3962,
      "Marsh": 3963,
      "stom": 3964,
      "develop": 3965,
      "Shhh": 3966,
      "Death": 3967,
      "Unless": 3968,
      "lights": 3969,
      "arrange": 3970,
      "distur": 3971,
      "effect": 3972,
      "Susan": 3973,
      "monster": 3974,
      "Ca": 3975,
      "Certain": 3976,
      "Eur": 3977,
      "Hot": 3978,
      "SH": 3979,
      "Tonight": 3980,
      "": 3981,
      "##cl": 3982,
      "##cise": 3983,
      "##MM": 3984,
      "##orter": 3985,
      "##omm": 3986,
      "reasons": 3987,
      "weather": 3988,
      "##umber": 3989,
      "stayed": 3990,
      "prov": 3991,
      "awhile": 3992,
      "##fortun": 3993,
      "necessary": 3994,
      "Sar": 3995,
      "bite": 3996,
      "pardon": 3997,
      "##house": 3998,
      "##ato": 3999,
      "##itary": 4000,
      "##asion": 4001,
      "whis": 4002,
      "##elle": 4003,
      "project": 4004,
      "bringing": 4005,
      "followed": 4006,
      "airport": 4007,
      "balls": 4008,
      "McC": 4009,
      "pressure": 4010,
      "Russian": 4011,
      "pe": 4012,
      "##ients": 4013,
      "thro": 4014,
      "##omed": 4015,
      "##reg": 4016,
      "became": 4017,
      "lift": 4018,
      "shr": 4019,
      "strength": 4020,
      "design": 4021,
      "speed": 4022,
      "##ergy": 4023,
      "weapons": 4024,
      "license": 4025,
      "origin": 4026,
      "Kay": 4027,
      "ST": 4028,
      "mail": 4029,
      "##ening": 4030,
      "##uses": 4031,
      "##add": 4032,
      "princ": 4033,
      "##ucky": 4034,
      "leaves": 4035,
      "emergency": 4036,
      "poison": 4037,
      "watched": 4038,
      "descri": 4039,
      "Until": 4040,
      "dressed": 4041,
      "rule": 4042,
      "Coun": 4043,
      "mountain": 4044,
      "pun": 4045,
      "threw": 4046,
      "comb": 4047,
      "##itty": 4048,
      "##anged": 4049,
      "aware": 4050,
      "incred": 4051,
      "detective": 4052,
      "especially": 4053,
      "Indian": 4054,
      "Francis": 4055,
      "Gordon": 4056,
      "Europe": 4057,
      "Luke": 4058,
      "hi": 4059,
      "jerk": 4060,
      "rum": 4061,
      "##arently": 4062,
      "##alt": 4063,
      "shark": 4064,
      "chair": 4065,
      "uncle": 4066,
      "faith": 4067,
      "Annie": 4068,
      "Bring": 4069,
      "Adam": 4070,
      "gentlemen": 4071,
      "Naw": 4072,
      "Ob": 4073,
      "Rep": 4074,
      "ok": 4075,
      "tea": 4076,
      "ugly": 4077,
      "##uv": 4078,
      "##bly": 4079,
      ".....": 4080,
      "##leet": 4081,
      "##sey": 4082,
      "sever": 4083,
      "drove": 4084,
      "Joey": 4085,
      "##okes": 4086,
      "animals": 4087,
      "loud": 4088,
      "mood": 4089,
      "##AS": 4090,
      "##otch": 4091,
      "react": 4092,
      "##ceed": 4093,
      "sport": 4094,
      "Char": 4095,
      "Know": 4096,
      "Baby": 4097,
      "immediately": 4098,
      "Spe": 4099,
      "theory": 4100,
      "##isc": 4101,
      "##omise": 4102,
      "bright": 4103,
      "written": 4104,
      "helping": 4105,
      "sooner": 4106,
      "##ledge": 4107,
      "chicken": 4108,
      "easier": 4109,
      "Hollywood": 4110,
      "Relax": 4111,
      "port": 4112,
      "sour": 4113,
      "##ased": 4114,
      "##osition": 4115,
      "choose": 4116,
      "meaning": 4117,
      "sometime": 4118,
      "##ipe": 4119,
      "expecting": 4120,
      "expected": 4121,
      "dogs": 4122,
      "Benj": 4123,
      "regular": 4124,
      "practice": 4125,
      "closer": 4126,
      "cousin": 4127,
      "Mu": 4128,
      "##itiz": 4129,
      "meat": 4130,
      "stars": 4131,
      "shirt": 4132,
      "##geant": 4133,
      "unc": 4134,
      "personally": 4135,
      "planning": 4136,
      "damned": 4137,
      "pieces": 4138,
      "Tex": 4139,
      "Daniel": 4140,
      "cal": 4141,
      "##ived": 4142,
      "tow": 4143,
      "bear": 4144,
      "##ida": 4145,
      "knife": 4146,
      "storm": 4147,
      "Step": 4148,
      "appoint": 4149,
      "##gged": 4150,
      "teacher": 4151,
      "mentioned": 4152,
      "obviously": 4153,
      "crowd": 4154,
      "Kr": 4155,
      "ears": 4156,
      "##iers": 4157,
      "above": 4158,
      "nowhere": 4159,
      "coat": 4160,
      "assume": 4161,
      "shower": 4162,
      "##arely": 4163,
      "beauty": 4164,
      "crying": 4165,
      "pissed": 4166,
      "local": 4167,
      "##elebr": 4168,
      "language": 4169,
      "?'": 4170,
      "Gimme": 4171,
      "di": 4172,
      "##VE": 4173,
      "##ini": 4174,
      "Thurs": 4175,
      "opened": 4176,
      "eleven": 4177,
      "disappoint": 4178,
      "operation": 4179,
      "particular": 4180,
      "opportunity": 4181,
      ".]": 4182,
      "Ra": 4183,
      "##kes": 4184,
      "##asing": 4185,
      "repe": 4186,
      "##imp": 4187,
      "ate": 4188,
      "chop": 4189,
      "bug": 4190,
      "grad": 4191,
      "##ension": 4192,
      "object": 4193,
      "Pete": 4194,
      "busted": 4195,
      "Thursday": 4196,
      "Des": 4197,
      "FUCK": 4198,
      "Jon": 4199,
      "Res": 4200,
      "bene": 4201,
      "ir": 4202,
      "tip": 4203,
      "##ya": 4204,
      "ash": 4205,
      "energy": 4206,
      "scri": 4207,
      "driver": 4208,
      "leads": 4209,
      "divorce": 4210,
      ".?": 4211,
      "Bud": 4212,
      "Hild": 4213,
      "Mit": 4214,
      "Ros": 4215,
      "Sa": 4216,
      "Wr": 4217,
      "Wood": 4218,
      "bum": 4219,
      "cre": 4220,
      "page": 4221,
      "##ha": 4222,
      "##arant": 4223,
      "##ita": 4224,
      "lif": 4225,
      "States": 4226,
      "Chic": 4227,
      "Been": 4228,
      "biggest": 4229,
      "flat": 4230,
      "Elaine": 4231,
      "buried": 4232,
      "sales": 4233,
      "market": 4234,
      "bottom": 4235,
      "allowed": 4236,
      "weapon": 4237,
      "mirac": 4238,
      "neighborhood": 4239,
      "professional": 4240,
      "Certainly": 4241,
      "Hit": 4242,
      "Jose": 4243,
      "Larry": 4244,
      "pair": 4245,
      "upon": 4246,
      "truly": 4247,
      "quot": 4248,
      "Ins": 4249,
      "##prise": 4250,
      "access": 4251,
      "doctors": 4252,
      "sneak": 4253,
      "throat": 4254,
      "\"\"": 4255,
      "Earl": 4256,
      "cree": 4257,
      "files": 4258,
      "hated": 4259,
      "mut": 4260,
      "oil": 4261,
      "rab": 4262,
      "##tor": 4263,
      "##fect": 4264,
      "##form": 4265,
      "##bar": 4266,
      "##ari": 4267,
      "rev": 4268,
      "social": 4269,
      "separ": 4270,
      "Princ": 4271,
      "breaking": 4272,
      "##ipper": 4273,
      "Seven": 4274,
      "##chell": 4275,
      "Monday": 4276,
      "intellig": 4277,
      "Mitchell": 4278,
      "Home": 4279,
      "Nin": 4280,
      "Poor": 4281,
      "Ty": 4282,
      "pers": 4283,
      "vol": 4284,
      "##well": 4285,
      "##icious": 4286,
      "stat": 4287,
      "Their": 4288,
      "log": 4289,
      "serve": 4290,
      "signal": 4291,
      "general": 4292,
      "World": 4293,
      "Ryan": 4294,
      "Benjamin": 4295,
      "Ke": 4296,
      "Mel": 4297,
      "boo": 4298,
      "##oe": 4299,
      "##lt": 4300,
      "fore": 4301,
      "##ilities": 4302,
      "manager": 4303,
      "Beat": 4304,
      "Leo": 4305,
      "Baron": 4306,
      "Danny": 4307,
      "British": 4308,
      "battle": 4309,
      "fan": 4310,
      "fed": 4311,
      "map": 4312,
      "ther": 4313,
      "whom": 4314,
      "##ston": 4315,
      "everywhere": 4316,
      "tryin": 4317,
      "Shall": 4318,
      "craw": 4319,
      "##gging": 4320,
      "##ERE": 4321,
      "Professor": 4322,
      "Rache": 4323,
      "joint": 4324,
      "##AY": 4325,
      "liar": 4326,
      "##ental": 4327,
      "trade": 4328,
      "imm": 4329,
      "##ording": 4330,
      "Johnson": 4331,
      "eighteen": 4332,
      "total": 4333,
      "##rupt": 4334,
      "damage": 4335,
      "communic": 4336,
      "turning": 4337,
      "Course": 4338,
      "frightened": 4339,
      "Easy": 4340,
      "Lam": 4341,
      "Sy": 4342,
      "hunt": 4343,
      "##hew": 4344,
      "##illiant": 4345,
      "##udy": 4346,
      "Goodnight": 4347,
      "Def": 4348,
      "Without": 4349,
      "##ipping": 4350,
      "legal": 4351,
      "ruin": 4352,
      "responsibility": 4353,
      "streets": 4354,
      "20": 4355,
      "boot": 4356,
      "celebr": 4357,
      "gang": 4358,
      "##off": 4359,
      "##case": 4360,
      "doors": 4361,
      "myster": 4362,
      "##empt": 4363,
      "emotion": 4364,
      "funeral": 4365,
      "forgotten": 4366,
      "pretend": 4367,
      "##ratulations": 4368,
      "Junior": 4369,
      "stomach": 4370,
      "18": 4371,
      "Dun": 4372,
      "Far": 4373,
      "Gir": 4374,
      "Low": 4375,
      "Run": 4376,
      "Tay": 4377,
      "patter": 4378,
      "##of": 4379,
      "##bage": 4380,
      "##LE": 4381,
      "shape": 4382,
      "##emme": 4383,
      "trunk": 4384,
      "trap": 4385,
      "Spock": 4386,
      "Commander": 4387,
      "engine": 4388,
      "wheel": 4389,
      "Ow": 4390,
      "##rant": 4391,
      "##pir": 4392,
      "depress": 4393,
      "bye": 4394,
      "##onsense": 4395,
      "quickly": 4396,
      "teleph": 4397,
      "milk": 4398,
      "prepared": 4399,
      "fortune": 4400,
      "Half": 4401,
      "tapes": 4402,
      "Mickey": 4403,
      "pregnant": 4404,
      "Ap": 4405,
      "RE": 4406,
      "boring": 4407,
      "##father": 4408,
      "##itation": 4409,
      "chem": 4410,
      "bedroom": 4411,
      "powerful": 4412,
      "birds": 4413,
      "approach": 4414,
      "target": 4415,
      "Hildy": 4416,
      "Taylor": 4417,
      "Haw": 4418,
      "Jane": 4419,
      "har": 4420,
      "punch": 4421,
      "##uz": 4422,
      "##AD": 4423,
      "##anz": 4424,
      "dozen": 4425,
      "##alley": 4426,
      "among": 4427,
      "ours": 4428,
      "flowers": 4429,
      "Alan": 4430,
      "drag": 4431,
      "grave": 4432,
      "Sidney": 4433,
      "Sonny": 4434,
      "disappeared": 4435,
      "slept": 4436,
      "issue": 4437,
      "Roger": 4438,
      "disease": 4439,
      "Chicago": 4440,
      "Air": 4441,
      "Eh": 4442,
      "wire": 4443,
      "##back": 4444,
      "tooth": 4445,
      "saving": 4446,
      "mostly": 4447,
      "United": 4448,
      "sexual": 4449,
      "bullet": 4450,
      "snow": 4451,
      "medic": 4452,
      "strike": 4453,
      "Italian": 4454,
      "Mil": 4455,
      "Ot": 4456,
      "Open": 4457,
      "Offic": 4458,
      "Sally": 4459,
      "fem": 4460,
      "pump": 4461,
      "tit": 4462,
      "vill": 4463,
      "##ture": 4464,
      "##order": 4465,
      "exec": 4466,
      "unh": 4467,
      "thoughts": 4468,
      "finds": 4469,
      "##onds": 4470,
      "process": 4471,
      "Sweet": 4472,
      "destroyed": 4473,
      "bleed": 4474,
      "garage": 4475,
      "survive": 4476,
      "represent": 4477,
      "Down": 4478,
      "Karl": 4479,
      "Might": 4480,
      "earl": 4481,
      "##val": 4482,
      "##reck": 4483,
      "reck": 4484,
      "##ales": 4485,
      "##unce": 4486,
      "soci": 4487,
      "##asty": 4488,
      "letting": 4489,
      "plays": 4490,
      "research": 4491,
      "insist": 4492,
      "restaur": 4493,
      "infl": 4494,
      "positive": 4495,
      "burned": 4496,
      "Sergeant": 4497,
      "pattern": 4498,
      "Him": 4499,
      "Lis": 4500,
      "Vir": 4501,
      "mass": 4502,
      "##ij": 4503,
      "##fit": 4504,
      "doc": 4505,
      "##eez": 4506,
      "abs": 4507,
      "chain": 4508,
      "loy": 4509,
      "disg": 4510,
      "Real": 4511,
      "attorney": 4512,
      "accom": 4513,
      "surf": 4514,
      "Mean": 4515,
      "picking": 4516,
      "falling": 4517,
      "fixed": 4518,
      "Enter": 4519,
      "virus": 4520,
      "quarter": 4521,
      "jacket": 4522,
      "Cool": 4523,
      "Linda": 4524,
      "cream": 4525,
      "ver": 4526,
      "##iod": 4527,
      "##hip": 4528,
      "##rit": 4529,
      "##yd": 4530,
      "##aly": 4531,
      "stink": 4532,
      "shame": 4533,
      "##uding": 4534,
      "##road": 4535,
      "ends": 4536,
      "Neg": 4537,
      "Guy": 4538,
      "ladies": 4539,
      "script": 4540,
      "Joseph": 4541,
      "Cons": 4542,
      "Wade": 4543,
      "ju": 4544,
      "##nin": 4545,
      "##itions": 4546,
      "someplace": 4547,
      "##ulation": 4548,
      "plus": 4549,
      "player": 4550,
      "planned": 4551,
      "invited": 4552,
      "selling": 4553,
      "flying": 4554,
      "physical": 4555,
      "eggs": 4556,
      "German": 4557,
      "Queen": 4558,
      "Ac": 4559,
      "Acc": 4560,
      "Dam": 4561,
      "Las": 4562,
      "Tim": 4563,
      "fund": 4564,
      "jew": 4565,
      "##cean": 4566,
      "##umst": 4567,
      "spell": 4568,
      "spare": 4569,
      "Brown": 4570,
      "Anybody": 4571,
      "##ashed": 4572,
      "final": 4573,
      "Margo": 4574,
      "##ussy": 4575,
      "Couldn": 4576,
      "terrific": 4577,
      "connection": 4578,
      "Hor": 4579,
      "Yo": 4580,
      "dude": 4581,
      "faster": 4582,
      "rush": 4583,
      "##under": 4584,
      "--?": 4585,
      "tellin": 4586,
      "##icks": 4587,
      "amb": 4588,
      "Whoa": 4589,
      "science": 4590,
      "smoking": 4591,
      "buying": 4592,
      "recall": 4593,
      "dealing": 4594,
      "attitude": 4595,
      "##avior": 4596,
      "clever": 4597,
      "desper": 4598,
      "##ologist": 4599,
      "##olution": 4600,
      "cabin": 4601,
      "occur": 4602,
      "Honor": 4603,
      "broad": 4604,
      "Cub": 4605,
      "Die": 4606,
      "junk": 4607,
      "mater": 4608,
      "pian": 4609,
      "wet": 4610,
      "##eer": 4611,
      "##ux": 4612,
      "##kins": 4613,
      "##bel": 4614,
      "##ches": 4615,
      "thinkin": 4616,
      "noise": 4617,
      "manage": 4618,
      "chest": 4619,
      "guarant": 4620,
      "amount": 4621,
      "##cience": 4622,
      "Clark": 4623,
      "complicated": 4624,
      "refer": 4625,
      "dancing": 4626,
      "Master": 4627,
      "OF": 4628,
      "Ram": 4629,
      "fing": 4630,
      "maid": 4631,
      "nerve": 4632,
      "rate": 4633,
      "##gen": 4634,
      "##ker": 4635,
      "##AM": 4636,
      "##cker": 4637,
      "Head": 4638,
      "##olen": 4639,
      "Ange": 4640,
      "Anna": 4641,
      "compet": 4642,
      "bloody": 4643,
      "arrested": 4644,
      "Rachel": 4645,
      "Money": 4646,
      "##vent": 4647,
      "##oms": 4648,
      "##rap": 4649,
      "chances": 4650,
      "moves": 4651,
      "kidna": 4652,
      "parts": 4653,
      "waited": 4654,
      "Forg": 4655,
      "grown": 4656,
      "secretary": 4657,
      "covered": 4658,
      "cigarettes": 4659,
      "Police": 4660,
      "video": 4661,
      "loyal": 4662,
      "15": 4663,
      "Coll": 4664,
      "Funny": 4665,
      "Night": 4666,
      "Rock": 4667,
      "Tony": 4668,
      "besides": 4669,
      "brief": 4670,
      "nic": 4671,
      "ol": 4672,
      "##oices": 4673,
      "Thought": 4674,
      "swell": 4675,
      "actor": 4676,
      "activ": 4677,
      "speaking": 4678,
      "elev": 4679,
      "changes": 4680,
      "square": 4681,
      "12": 4682,
      "Cole": 4683,
      "Cont": 4684,
      "hire": 4685,
      "non": 4686,
      "pills": 4687,
      "tong": 4688,
      "##rets": 4689,
      "##OW": 4690,
      "lies": 4691,
      "##pping": 4692,
      "talks": 4693,
      "##izing": 4694,
      "##aund": 4695,
      "##rica": 4696,
      "practically": 4697,
      "earlier": 4698,
      "Fa": 4699,
      "Jab": 4700,
      "Wom": 4701,
      "Walk": 4702,
      "data": 4703,
      "##ona": 4704,
      "##oti": 4705,
      "##usual": 4706,
      "staff": 4707,
      "##cher": 4708,
      "Theo": 4709,
      "saf": 4710,
      "##athan": 4711,
      "Ready": 4712,
      "Amy": 4713,
      "sched": 4714,
      "Marc": 4715,
      "complain": 4716,
      "touched": 4717,
      "Chinese": 4718,
      "pilot": 4719,
      "romantic": 4720,
      "magazine": 4721,
      "##omeday": 4722,
      "East": 4723,
      "Lady": 4724,
      "Sand": 4725,
      "Tre": 4726,
      "dirt": 4727,
      "##iber": 4728,
      "##vert": 4729,
      "style": 4730,
      "opening": 4731,
      "awake": 4732,
      "Speak": 4733,
      "sending": 4734,
      "concent": 4735,
      "Gotta": 4736,
      "Steve": 4737,
      "avoid": 4738,
      "therap": 4739,
      "Jam": 4740,
      "Jap": 4741,
      "Kir": 4742,
      "Ven": 4743,
      "Win": 4744,
      "net": 4745,
      "roof": 4746,
      "##king": 4747,
      "##bon": 4748,
      "##eter": 4749,
      "##iform": 4750,
      "trad": 4751,
      "unf": 4752,
      "sweat": 4753,
      "disp": 4754,
      "strang": 4755,
      "Seems": 4756,
      "pulling": 4757,
      "ordered": 4758,
      "oughta": 4759,
      "Beth": 4760,
      "illeg": 4761,
      "Simone": 4762,
      "baseball": 4763,
      "details": 4764,
      "Fire": 4765,
      "Hea": 4766,
      "Ms": 4767,
      "ban": 4768,
      "fac": 4769,
      "hates": 4770,
      "tail": 4771,
      "##gy": 4772,
      "##cut": 4773,
      "whore": 4774,
      "shift": 4775,
      "likely": 4776,
      "##ummy": 4777,
      "flo": 4778,
      "jobs": 4779,
      "terror": 4780,
      "Grant": 4781,
      "defense": 4782,
      "laughing": 4783,
      "Hurry": 4784,
      "North": 4785,
      "citiz": 4786,
      "sed": 4787,
      "tim": 4788,
      "toward": 4789,
      "##utation": 4790,
      "prim": 4791,
      "##ilies": 4792,
      "unusual": 4793,
      "recomm": 4794,
      "slight": 4795,
      "drinks": 4796,
      "##iverse": 4797,
      "confused": 4798,
      "Perfect": 4799,
      "indeed": 4800,
      "psychiat": 4801,
      "WHAT": 4802,
      "Officer": 4803,
      "Happy": 4804,
      "Matt": 4805,
      "firm": 4806,
      "guts": 4807,
      "north": 4808,
      "##erves": 4809,
      "knowledge": 4810,
      "liqu": 4811,
      "##ella": 4812,
      "##eline": 4813,
      "downstairs": 4814,
      "uniform": 4815,
      "##ugs": 4816,
      "##etti": 4817,
      "policy": 4818,
      "ended": 4819,
      "experiment": 4820,
      "freed": 4821,
      "typ": 4822,
      "Flor": 4823,
      "military": 4824,
      "Williams": 4825,
      "Den": 4826,
      "Gard": 4827,
      "Such": 4828,
      "Sister": 4829,
      "nar": 4830,
      "##gl": 4831,
      "##ators": 4832,
      "inj": 4833,
      "##allow": 4834,
      "sail": 4835,
      "Church": 4836,
      "understood": 4837,
      "huge": 4838,
      "##roke": 4839,
      "##ordin": 4840,
      "France": 4841,
      "smile": 4842,
      "Reed": 4843,
      "decent": 4844,
      "Jackie": 4845,
      "Neither": 4846,
      "##ological": 4847,
      "president": 4848,
      "soldier": 4849,
      "created": 4850,
      "glasses": 4851,
      "negoti": 4852,
      "mixed": 4853,
      "newspaper": 4854,
      "horses": 4855,
      "Cath": 4856,
      "Sur": 4857,
      "nut": 4858,
      "pure": 4859,
      "sin": 4860,
      "south": 4861,
      "woke": 4862,
      "##rance": 4863,
      "##lock": 4864,
      "##arp": 4865,
      "plain": 4866,
      "##ittee": 4867,
      "betray": 4868,
      "##peror": 4869,
      "partners": 4870,
      "##ints": 4871,
      "invite": 4872,
      "laws": 4873,
      "member": 4874,
      "???": 4875,
      "product": 4876,
      "entertain": 4877,
      "Detective": 4878,
      "motherfucker": 4879,
      "several": 4880,
      "material": 4881,
      "Best": 4882,
      "Mons": 4883,
      "ON": 4884,
      "bal": 4885,
      "vamp": 4886,
      "##pet": 4887,
      "##ST": 4888,
      "thief": 4889,
      "##atives": 4890,
      "cancer": 4891,
      "nearly": 4892,
      "##ilos": 4893,
      "chief": 4894,
      "Start": 4895,
      "carefully": 4896,
      "headed": 4897,
      "commit": 4898,
      "##ucle": 4899,
      "instruct": 4900,
      "artist": 4901,
      "tickets": 4902,
      "Ellie": 4903,
      "circumst": 4904,
      "cigarette": 4905,
      "continue": 4906,
      "Clarence": 4907,
      "Texas": 4908,
      "Jones": 4909,
      "Los": 4910,
      "Ron": 4911,
      "Tot": 4912,
      "mob": 4913,
      "mile": 4914,
      "##verage": 4915,
      "stolen": 4916,
      "enc": 4917,
      "blank": 4918,
      "showing": 4919,
      "##ashion": 4920,
      "signed": 4921,
      "offered": 4922,
      "creature": 4923,
      "Congratulations": 4924,
      "fake": 4925,
      "hidden": 4926,
      "loss": 4927,
      "sna": 4928,
      "ta": 4929,
      "tall": 4930,
      "##ex": 4931,
      "##aled": 4932,
      "lips": 4933,
      "##ops": 4934,
      "##rag": 4935,
      "##ateful": 4936,
      "screen": 4937,
      "Inter": 4938,
      "Force": 4939,
      "Almost": 4940,
      "result": 4941,
      "thousands": 4942,
      "terms": 4943,
      "Mommy": 4944,
      "Play": 4945,
      "garbage": 4946,
      "example": 4947,
      "Santa": 4948,
      "Kane": 4949,
      "Naz": 4950,
      "Pull": 4951,
      "dish": 4952,
      "dies": 4953,
      "gri": 4954,
      "hol": 4955,
      "mort": 4956,
      "yard": 4957,
      "##ef": 4958,
      "##mond": 4959,
      "##IG": 4960,
      "##otic": 4961,
      "##rees": 4962,
      "##rib": 4963,
      "exact": 4964,
      "Inst": 4965,
      "realized": 4966,
      "relig": 4967,
      "ruined": 4968,
      "photograph": 4969,
      "midnight": 4970,
      "Especially": 4971,
      "AND": 4972,
      "tongue": 4973,
      "Cou": 4974,
      "Cast": 4975,
      "Either": 4976,
      "Sue": 4977,
      "Sail": 4978,
      "Terry": 4979,
      "##oil": 4980,
      "stab": 4981,
      "##andon": 4982,
      "express": 4983,
      "##useum": 4984,
      "spring": 4985,
      "Island": 4986,
      "impl": 4987,
      "reality": 4988,
      "rooms": 4989,
      "behavior": 4990,
      "eighty": 4991,
      "transfer": 4992,
      "devil": 4993,
      "Fifty": 4994,
      "restaurant": 4995,
      "Japan": 4996,
      "Feel": 4997,
      "Fair": 4998,
      "Jess": 4999,
      "Med": 5000,
      "Pri": 5001,
      "dust": 5002,
      "dare": 5003,
      "fe": 5004,
      "##asure": 5005,
      "##rel": 5006,
      "##kel": 5007,
      "heh": 5008,
      "Welcome": 5009,
      "##ieur": 5010,
      "##icked": 5011,
      "##agne": 5012,
      "otherwise": 5013,
      "trail": 5014,
      "Promise": 5015,
      "Fucking": 5016,
      "burning": 5017,
      "reputation": 5018,
      "belongs": 5019,
      "investigation": 5020,
      "incredible": 5021,
      "Ahh": 5022,
      "Kelly": 5023,
      "Nine": 5024,
      "Tur": 5025,
      "Tues": 5026,
      "bills": 5027,
      "grew": 5028,
      "lord": 5029,
      "##lig": 5030,
      "##arn": 5031,
      "##arily": 5032,
      "brings": 5033,
      "brilliant": 5034,
      "##oston": 5035,
      "insult": 5036,
      "desire": 5037,
      "##ocol": 5038,
      "paint": 5039,
      "riding": 5040,
      "genius": 5041,
      "demand": 5042,
      "Court": 5043,
      "expensive": 5044,
      "Jacqu": 5045,
      "Sarah": 5046,
      "fingers": 5047,
      "Jabez": 5048,
      "Tuesday": 5049,
      "Hang": 5050,
      "Jer": 5051,
      "Mont": 5052,
      "Squ": 5053,
      "opt": 5054,
      "tied": 5055,
      "cand": 5056,
      "shield": 5057,
      "butter": 5058,
      "##ureau": 5059,
      "Answ": 5060,
      "confidence": 5061,
      "Sean": 5062,
      "Quite": 5063,
      "statement": 5064,
      "progress": 5065,
      "edge": 5066,
      "Honest": 5067,
      "Hu": 5068,
      "##ued": 5069,
      "##org": 5070,
      "##esar": 5071,
      "rights": 5072,
      "##osc": 5073,
      "sayin": 5074,
      "##olic": 5075,
      "##ables": 5076,
      "arg": 5077,
      "score": 5078,
      "finding": 5079,
      "heading": 5080,
      "grade": 5081,
      "families": 5082,
      "clearly": 5083,
      "goddam": 5084,
      "Again": 5085,
      "Nicky": 5086,
      "impressed": 5087,
      "Hmmm": 5088,
      "arrived": 5089,
      "discovered": 5090,
      "nightmare": 5091,
      "Steph": 5092,
      "##uclear": 5093,
      "Both": 5094,
      "Sil": 5095,
      "cooper": 5096,
      "naked": 5097,
      "##aves": 5098,
      "##iac": 5099,
      "##AL": 5100,
      "##ushing": 5101,
      "alarm": 5102,
      "##uman": 5103,
      "downtown": 5104,
      "kinds": 5105,
      "understanding": 5106,
      "period": 5107,
      "attempt": 5108,
      "prior": 5109,
      "##uced": 5110,
      "murderer": 5111,
      "official": 5112,
      "magn": 5113,
      "Department": 5114,
      "Suppose": 5115,
      "Enterprise": 5116,
      "Rand": 5117,
      "cents": 5118,
      "pussy": 5119,
      "##rad": 5120,
      "##vest": 5121,
      "##mother": 5122,
      "##ILL": 5123,
      "...'": 5124,
      "##oops": 5125,
      "##abitch": 5126,
      "Cha": 5127,
      "drown": 5128,
      "Int": 5129,
      "swing": 5130,
      "babies": 5131,
      "##gger": 5132,
      "Wasn": 5133,
      "lesson": 5134,
      "breathe": 5135,
      "Beaut": 5136,
      "##burg": 5137,
      "Today": 5138,
      "Francisco": 5139,
      "piano": 5140,
      "Hand": 5141,
      "Off": 5142,
      "Pardon": 5143,
      "bored": 5144,
      "jury": 5145,
      "mere": 5146,
      "##agh": 5147,
      "##oci": 5148,
      "##lies": 5149,
      "toil": 5150,
      "##hel": 5151,
      "offense": 5152,
      "intend": 5153,
      "recover": 5154,
      "sky": 5155,
      "defend": 5156,
      "THAT": 5157,
      "Barb": 5158,
      "kicked": 5159,
      "center": 5160,
      "occasion": 5161,
      "possibility": 5162,
      "Claire": 5163,
      "value": 5164,
      "trees": 5165,
      "Patrick": 5166,
      "society": 5167,
      "influ": 5168,
      "Answer": 5169,
      "Boss": 5170,
      "fashion": 5171,
      "gain": 5172,
      "pill": 5173,
      "##ios": 5174,
      "##down": 5175,
      "##for": 5176,
      "##reak": 5177,
      "reward": 5178,
      "wasting": 5179,
      "##ched": 5180,
      "##ential": 5181,
      "##ousy": 5182,
      "spread": 5183,
      "agreed": 5184,
      "##ipment": 5185,
      "Shoot": 5186,
      "badly": 5187,
      "##arlin": 5188,
      "grateful": 5189,
      "walks": 5190,
      "invent": 5191,
      "Jesse": 5192,
      "extrem": 5193,
      "distance": 5194,
      "Plus": 5195,
      "growing": 5196,
      "Madame": 5197,
      "create": 5198,
      "Hom": 5199,
      "Move": 5200,
      "witch": 5201,
      "ye": 5202,
      "##bles": 5203,
      "stood": 5204,
      "Web": 5205,
      "##uns": 5206,
      "##ols": 5207,
      "Howard": 5208,
      "scary": 5209,
      "associ": 5210,
      "Anyone": 5211,
      "sixteen": 5212,
      "facts": 5213,
      "student": 5214,
      "hyp": 5215,
      "scratch": 5216,
      "Caesar": 5217,
      "appointment": 5218,
      "freedom": 5219,
      "25": 5220,
      "Calm": 5221,
      "Dis": 5222,
      "Made": 5223,
      "Mitch": 5224,
      "Send": 5225,
      "Use": 5226,
      "Wend": 5227,
      "barely": 5228,
      "mask": 5229,
      "sou": 5230,
      "##wich": 5231,
      "##ially": 5232,
      "##bass": 5233,
      "##erable": 5234,
      "##ays": 5235,
      "##ucker": 5236,
      "poet": 5237,
      "##onde": 5238,
      "Going": 5239,
      "wondered": 5240,
      "charming": 5241,
      "captain": 5242,
      "director": 5243,
      "Emperor": 5244,
      "screwed": 5245,
      "Congress": 5246,
      "pupp": 5247,
      "miracle": 5248,
      "Beautiful": 5249,
      "Bus": 5250,
      "Bird": 5251,
      "Bax": 5252,
      "Count": 5253,
      "Ham": 5254,
      "Men": 5255,
      "Vinc": 5256,
      "Wy": 5257,
      "diam": 5258,
      "nasty": 5259,
      "pa": 5260,
      "##SE": 5261,
      "##eration": 5262,
      "##atory": 5263,
      "spoken": 5264,
      "##agon": 5265,
      "underw": 5266,
      "armed": 5267,
      "scar": 5268,
      "acqu": 5269,
      "depends": 5270,
      "Edward": 5271,
      "wallet": 5272,
      "Carter": 5273,
      "equipment": 5274,
      "screaming": 5275,
      "Romeo": 5276,
      "telephone": 5277,
      "Baxter": 5278,
      "Buff": 5279,
      "Da": 5280,
      "Ele": 5281,
      "Later": 5282,
      "Sat": 5283,
      "Serv": 5284,
      "gal": 5285,
      "gear": 5286,
      "pir": 5287,
      "race": 5288,
      "##aren": 5289,
      "bell": 5290,
      "##iece": 5291,
      "whoever": 5292,
      "Doyle": 5293,
      "twist": 5294,
      "kills": 5295,
      "##though": 5296,
      "universe": 5297,
      "##icted": 5298,
      "Dev": 5299,
      "##ensive": 5300,
      "passing": 5301,
      "prick": 5302,
      "detect": 5303,
      "capable": 5304,
      "affair": 5305,
      "loser": 5306,
      "anti": 5307,
      "hunting": 5308,
      "panic": 5309,
      "reckon": 5310,
      "Aunt": 5311,
      "Fig": 5312,
      "Hope": 5313,
      "Ru": 5314,
      "foc": 5315,
      "led": 5316,
      "tits": 5317,
      "##dom": 5318,
      "##rier": 5319,
      "assum": 5320,
      "flesh": 5321,
      "Anne": 5322,
      "resc": 5323,
      "hurts": 5324,
      "passion": 5325,
      "Scot": 5326,
      "exciting": 5327,
      "Agnes": 5328,
      "Steven": 5329,
      "attractive": 5330,
      "victims": 5331,
      "deny": 5332,
      "Apparently": 5333,
      "Kenned": 5334,
      "Lisa": 5335,
      "Diego": 5336,
      "Forgive": 5337,
      "safety": 5338,
      "Burn": 5339,
      "Mind": 5340,
      "Name": 5341,
      "cart": 5342,
      "jam": 5343,
      "mal": 5344,
      "wreck": 5345,
      "##iving": 5346,
      "ordin": 5347,
      "##ouses": 5348,
      "China": 5349,
      "##atherine": 5350,
      "##cient": 5351,
      "Getting": 5352,
      "##ival": 5353,
      "##swald": 5354,
      "Need": 5355,
      "learning": 5356,
      "brave": 5357,
      "winter": 5358,
      "##load": 5359,
      "lawyers": 5360,
      "Second": 5361,
      "model": 5362,
      "introduce": 5363,
      "##fortunately": 5364,
      "Gold": 5365,
      "Mal": 5366,
      "Meet": 5367,
      "Miam": 5368,
      "bound": 5369,
      "cake": 5370,
      "por": 5371,
      "pee": 5372,
      "range": 5373,
      "##oard": 5374,
      "##erved": 5375,
      "##eteen": 5376,
      "##itution": 5377,
      "Young": 5378,
      "##ights": 5379,
      "stone": 5380,
      "##ante": 5381,
      "##venge": 5382,
      "secrets": 5383,
      "cheese": 5384,
      "millions": 5385,
      "convinc": 5386,
      "divorced": 5387,
      "Moz": 5388,
      "odds": 5389,
      "Wonder": 5390,
      "circumstances": 5391,
      "Miami": 5392,
      "Lots": 5393,
      "Oswald": 5394,
      "Sug": 5395,
      "Times": 5396,
      "boun": 5397,
      "chat": 5398,
      "ocean": 5399,
      "pet": 5400,
      "vote": 5401,
      "##nam": 5402,
      "##rist": 5403,
      "##da": 5404,
      "##vard": 5405,
      "##IC": 5406,
      "##UR": 5407,
      "##enture": 5408,
      "aboard": 5409,
      "##igger": 5410,
      "##phy": 5411,
      "painting": 5412,
      "psycho": 5413,
      "century": 5414,
      "counter": 5415,
      "##ovich": 5416,
      "popular": 5417,
      "thrown": 5418,
      "audience": 5419,
      "original": 5420,
      "ashamed": 5421,
      "illegal": 5422,
      "Sailor": 5423,
      "extremely": 5424,
      "Dri": 5425,
      "Darling": 5426,
      "Eth": 5427,
      "Lor": 5428,
      "Mul": 5429,
      "Nix": 5430,
      "Wall": 5431,
      "fal": 5432,
      "fancy": 5433,
      "fasc": 5434,
      "lousy": 5435,
      "sen": 5436,
      "##can": 5437,
      "##die": 5438,
      "##imony": 5439,
      "##antage": 5440,
      "##stone": 5441,
      "justice": 5442,
      "pred": 5443,
      "coinc": 5444,
      "tricks": 5445,
      "priest": 5446,
      "Eliz": 5447,
      "curr": 5448,
      "Louise": 5449,
      "soldiers": 5450,
      "escap": 5451,
      "Secret": 5452,
      "Kennedy": 5453,
      "Gal": 5454,
      "IS": 5455,
      "Natur": 5456,
      "Pe": 5457,
      "Vada": 5458,
      "jud": 5459,
      "ox": 5460,
      "tunn": 5461,
      "##ault": 5462,
      "##gr": 5463,
      "thin": 5464,
      "##ader": 5465,
      "##usting": 5466,
      "##geon": 5467,
      "##ection": 5468,
      "##agn": 5469,
      "Stand": 5470,
      "brand": 5471,
      "##ailable": 5472,
      "points": 5473,
      "Att": 5474,
      "singing": 5475,
      "refuse": 5476,
      "spending": 5477,
      "knocked": 5478,
      "solid": 5479,
      "guests": 5480,
      "accompl": 5481,
      "Hud": 5482,
      "Nathan": 5483,
      "cure": 5484,
      "fab": 5485,
      "fought": 5486,
      "mat": 5487,
      "##kin": 5488,
      "##path": 5489,
      "##NA": 5490,
      "thy": 5491,
      "##enge": 5492,
      "##itute": 5493,
      "knees": 5494,
      "##aming": 5495,
      "Whose": 5496,
      "frank": 5497,
      "##uls": 5498,
      "loan": 5499,
      "##rove": 5500,
      "minds": 5501,
      "crit": 5502,
      "grant": 5503,
      "shots": 5504,
      "male": 5505,
      "experi": 5506,
      "tests": 5507,
      "attacked": 5508,
      "basement": 5509,
      "breathing": 5510,
      "NOT": 5511,
      "Dickie": 5512,
      "impression": 5513,
      "temper": 5514,
      "cases": 5515,
      "political": 5516,
      "performance": 5517,
      "Wayne": 5518,
      "shrink": 5519,
      "title": 5520,
      "##uncey": 5521,
      "Bon": 5522,
      "Lomb": 5523,
      "Lenny": 5524,
      "Save": 5525,
      "Tor": 5526,
      "Val": 5527,
      "Wed": 5528,
      "bones": 5529,
      "cult": 5530,
      "ho": 5531,
      "wide": 5532,
      "##rated": 5533,
      "##erence": 5534,
      "reb": 5535,
      "forced": 5536,
      "##ril": 5537,
      "##oses": 5538,
      "Rec": 5539,
      "trace": 5540,
      "traffic": 5541,
      "slip": 5542,
      "confident": 5543,
      "explos": 5544,
      "Frankie": 5545,
      "Says": 5546,
      "Plan": 5547,
      "admire": 5548,
      "repeat": 5549,
      "guarantee": 5550,
      "?--": 5551,
      "GET": 5552,
      "Kat": 5553,
      "OUT": 5554,
      "Year": 5555,
      "rig": 5556,
      "rare": 5557,
      "##ware": 5558,
      "anx": 5559,
      "angel": 5560,
      "novel": 5561,
      "fro": 5562,
      "##ulate": 5563,
      "##uments": 5564,
      "##apers": 5565,
      "whenever": 5566,
      "##eless": 5567,
      "Being": 5568,
      "Alice": 5569,
      "recently": 5570,
      "reasonable": 5571,
      "explan": 5572,
      "Enough": 5573,
      "considered": 5574,
      "Jews": 5575,
      "Jewish": 5576,
      "easily": 5577,
      "Miller": 5578,
      "execut": 5579,
      "Chauncey": 5580,
      "Mozart": 5581,
      "Lombard": 5582,
      "'!": 5583,
      "100": 5584,
      "Ho": 5585,
      "Mus": 5586,
      "Rod": 5587,
      "Sort": 5588,
      "Sleep": 5589,
      "Vik": 5590,
      "pitch": 5591,
      "rope": 5592,
      "##VER": 5593,
      "bein": 5594,
      "##icles": 5595,
      "##irteen": 5596,
      "sugar": 5597,
      "##ability": 5598,
      "workin": 5599,
      "##ague": 5600,
      "Stone": 5601,
      "coc": 5602,
      "below": 5603,
      "Frances": 5604,
      "##ception": 5605,
      "regret": 5606,
      "YOUR": 5607,
      "pleased": 5608,
      "Room": 5609,
      "Ricky": 5610,
      "Forty": 5611,
      "Janet": 5612,
      "princip": 5613,
      "##ofabitch": 5614,
      "Gardiner": 5615,
      "Bas": 5616,
      "Book": 5617,
      "Care": 5618,
      "Fall": 5619,
      "rail": 5620,
      "##zing": 5621,
      "##IA": 5622,
      "thee": 5623,
      "##illed": 5624,
      "wanting": 5625,
      "sacri": 5626,
      "##venue": 5627,
      "##abeth": 5628,
      "spoil": 5629,
      "assure": 5630,
      "permission": 5631,
      "proced": 5632,
      "warn": 5633,
      "##inson": 5634,
      "trusted": 5635,
      "register": 5636,
      "radi": 5637,
      "direction": 5638,
      "failure": 5639,
      "filled": 5640,
      "mirror": 5641,
      "cowboy": 5642,
      "woods": 5643,
      "sandwich": 5644,
      "Helen": 5645,
      "Special": 5646,
      "female": 5647,
      "desperate": 5648,
      "Faith": 5649,
      "Kirk": 5650,
      "DON": 5651,
      "Lester": 5652,
      "Lyd": 5653,
      "Pick": 5654,
      "Top": 5655,
      "bail": 5656,
      "fle": 5657,
      "hmm": 5658,
      "lake": 5659,
      "nuclear": 5660,
      "pour": 5661,
      "sie": 5662,
      "##iar": 5663,
      "##essel": 5664,
      "dope": 5665,
      "##icate": 5666,
      "libr": 5667,
      "Thel": 5668,
      "chall": 5669,
      "friendly": 5670,
      "##iously": 5671,
      "trained": 5672,
      "stretch": 5673,
      "adj": 5674,
      "foolish": 5675,
      "demon": 5676,
      "loaded": 5677,
      "Princess": 5678,
      "Lydia": 5679,
      "Bert": 5680,
      "Boston": 5681,
      "Dire": 5682,
      "Kath": 5683,
      "Number": 5684,
      "Ooo": 5685,
      "Tob": 5686,
      "border": 5687,
      "fishing": 5688,
      "lack": 5689,
      "nor": 5690,
      "rack": 5691,
      "##oh": 5692,
      "##uate": 5693,
      "##li": 5694,
      "##like": 5695,
      "##OT": 5696,
      "thumb": 5697,
      "toss": 5698,
      "##aser": 5699,
      "release": 5700,
      "stake": 5701,
      "##anda": 5702,
      "##ittin": 5703,
      "Chick": 5704,
      "Child": 5705,
      "bread": 5706,
      "##ivid": 5707,
      "prec": 5708,
      "courage": 5709,
      "term": 5710,
      "handsome": 5711,
      "Trans": 5712,
      "windows": 5713,
      "members": 5714,
      "throwing": 5715,
      "filth": 5716,
      "opera": 5717,
      "miserable": 5718,
      "sevent": 5719,
      "Security": 5720,
      "Russia": 5721,
      "pathetic": 5722,
      "assistant": 5723,
      "emotional": 5724,
      "medicine": 5725,
      "Heaven": 5726,
      "toilet": 5727,
      "Elizabeth": 5728,
      "Dar": 5729,
      "Free": 5730,
      "Friend": 5731,
      "Gab": 5732,
      "HA": 5733,
      "Mine": 5734,
      "National": 5735,
      "Said": 5736,
      "Water": 5737,
      "Yup": 5738,
      "bon": 5739,
      "lun": 5740,
      "nigg": 5741,
      "porn": 5742,
      "##oir": 5743,
      "##ket": 5744,
      "##lus": 5745,
      "##pher": 5746,
      "##book": 5747,
      "##OP": 5748,
      "##oos": 5749,
      "whack": 5750,
      "##ador": 5751,
      "##cel": 5752,
      "##iev": 5753,
      "veh": 5754,
      "lover": 5755,
      "exer": 5756,
      "season": 5757,
      "carried": 5758,
      "uns": 5759,
      "Whoever": 5760,
      "##pert": 5761,
      "parties": 5762,
      "Reg": 5763,
      "Clay": 5764,
      "cutting": 5765,
      "younger": 5766,
      "humor": 5767,
      "bullets": 5768,
      "educ": 5769,
      "available": 5770,
      "##ropri": 5771,
      "champagne": 5772,
      "Charley": 5773,
      "foreign": 5774,
      "unhappy": 5775,
      "Monsieur": 5776,
      "Dian": 5777,
      "Judge": 5778,
      "Kent": 5779,
      "bes": 5780,
      "batter": 5781,
      "##cra": 5782,
      "repl": 5783,
      "##adow": 5784,
      "##illa": 5785,
      "shake": 5786,
      "cloud": 5787,
      "Club": 5788,
      "interests": 5789,
      "##apped": 5790,
      "dreaming": 5791,
      "signs": 5792,
      "##ervation": 5793,
      "memories": 5794,
      "bags": 5795,
      "Craig": 5796,
      "embarrassing": 5797,
      "authority": 5798,
      "Hotel": 5799,
      "argument": 5800,
      "Brian": 5801,
      "Josh": 5802,
      "ep": 5803,
      "link": 5804,
      "mart": 5805,
      "##oved": 5806,
      "##inting": 5807,
      "meal": 5808,
      "stamp": 5809,
      "##amm": 5810,
      "qual": 5811,
      "puts": 5812,
      "Price": 5813,
      "##ublic": 5814,
      "##enced": 5815,
      "cleaning": 5816,
      "sisters": 5817,
      "grandfather": 5818,
      "reporter": 5819,
      "convince": 5820,
      "community": 5821,
      "casino": 5822,
      "virgin": 5823,
      "politics": 5824,
      "suspicious": 5825,
      "Central": 5826,
      "becoming": 5827,
      "source": 5828,
      "Florida": 5829,
      "BE": 5830,
      "Dom": 5831,
      "Kurt": 5832,
      "Karen": 5833,
      "Pear": 5834,
      "fate": 5835,
      "gate": 5836,
      "liter": 5837,
      "mic": 5838,
      "pist": 5839,
      "##uis": 5840,
      "##fleet": 5841,
      "##zo": 5842,
      "##pent": 5843,
      "##hem": 5844,
      "##ician": 5845,
      "##usted": 5846,
      "##change": 5847,
      "deb": 5848,
      "guards": 5849,
      "brown": 5850,
      "flatter": 5851,
      "Read": 5852,
      "sonofabitch": 5853,
      "Close": 5854,
      "Twelve": 5855,
      "commer": 5856,
      "charges": 5857,
      "fully": 5858,
      "incident": 5859,
      "terribly": 5860,
      "arranged": 5861,
      "Commission": 5862,
      "stealing": 5863,
      "##iversity": 5864,
      "Laura": 5865,
      "Otherwise": 5866,
      "disturb": 5867,
      "ordinary": 5868,
      "Case": 5869,
      "Ned": 5870,
      "dime": 5871,
      "gimme": 5872,
      "sore": 5873,
      "wander": 5874,
      "##worth": 5875,
      "##IM": 5876,
      "##LD": 5877,
      "##arter": 5878,
      "##ids": 5879,
      "habit": 5880,
      "stage": 5881,
      "plate": 5882,
      "chasing": 5883,
      "Sheila": 5884,
      "unp": 5885,
      "arch": 5886,
      "argue": 5887,
      "##acher": 5888,
      "cruel": 5889,
      "Albert": 5890,
      "served": 5891,
      "meth": 5892,
      "Americans": 5893,
      "cleaned": 5894,
      "bothering": 5895,
      "Claud": 5896,
      "enemies": 5897,
      "negative": 5898,
      "sensitive": 5899,
      "autom": 5900,
      "Starfleet": 5901,
      "construct": 5902,
      "route": 5903,
      "satisfied": 5904,
      "journal": 5905,
      "rabbit": 5906,
      "explanation": 5907,
      ".\"\"": 5908,
      "Catherine": 5909,
      "Dear": 5910,
      "Mass": 5911,
      "Viet": 5912,
      "gall": 5913,
      "joy": 5914,
      "someday": 5915,
      "tent": 5916,
      "vers": 5917,
      "##xual": 5918,
      "contain": 5919,
      "shoulder": 5920,
      "remark": 5921,
      "crush": 5922,
      "##anced": 5923,
      "babe": 5924,
      "Expl": 5925,
      "##ggy": 5926,
      "Fuckin": 5927,
      "determ": 5928,
      "bury": 5929,
      "conduct": 5930,
      "Robinson": 5931,
      "treated": 5932,
      "counsel": 5933,
      "motel": 5934,
      "engaged": 5935,
      "shopping": 5936,
      "appears": 5937,
      "caused": 5938,
      "Susie": 5939,
      "##bbie": 5940,
      "healthy": 5941,
      "Women": 5942,
      "schedule": 5943,
      "Ethan": 5944,
      "false": 5945,
      "CH": 5946,
      "Hol": 5947,
      "Hanna": 5948,
      "NE": 5949,
      "Os": 5950,
      "fag": 5951,
      "hits": 5952,
      "holes": 5953,
      "##gain": 5954,
      "##ygen": 5955,
      "##kn": 5956,
      "##inos": 5957,
      "##esa": 5958,
      "beam": 5959,
      "--!": 5960,
      "##rig": 5961,
      "pros": 5962,
      "##istry": 5963,
      "philos": 5964,
      "Brook": 5965,
      "surg": 5966,
      "warning": 5967,
      "Debbie": 5968,
      "confess": 5969,
      "humili": 5970,
      "Neil": 5971,
      "instinct": 5972,
      "Barnes": 5973,
      "depend": 5974,
      "studio": 5975,
      "changing": 5976,
      "advantage": 5977,
      "vision": 5978,
      "destiny": 5979,
      "##nesday": 5980,
      "Morning": 5981,
      "ninety": 5982,
      "Otis": 5983,
      "Virgin": 5984,
      "##ocolate": 5985,
      "Wednesday": 5986,
      "sacrif": 5987,
      "##ropriate": 5988,
      "Cy": 5989,
      "Gale": 5990,
      "Greg": 5991,
      "Pal": 5992,
      "Wanna": 5993,
      "bond": 5994,
      "gay": 5995,
      "jokes": 5996,
      "tend": 5997,
      "zero": 5998,
      "##cred": 5999,
      "theater": 6000,
      "##cked": 6001,
      "Whatta": 6002,
      "While": 6003,
      "##esting": 6004,
      "##ilar": 6005,
      "suits": 6006,
      "delic": 6007,
      "woulda": 6008,
      "##ulous": 6009,
      "sale": 6010,
      "Sheld": 6011,
      "fucker": 6012,
      "intention": 6013,
      "blown": 6014,
      "crook": 6015,
      "##pector": 6016,
      "##ianc": 6017,
      "fourth": 6018,
      "fourteen": 6019,
      "checking": 6020,
      "holds": 6021,
      "##ocr": 6022,
      "conference": 6023,
      "murders": 6024,
      "curse": 6025,
      "walls": 6026,
      "entirely": 6027,
      "slowly": 6028,
      "launch": 6029,
      "Fifteen": 6030,
      "climb": 6031,
      "fantastic": 6032,
      "Superman": 6033,
      "Viktor": 6034,
      "seventeen": 6035,
      ".</": 6036,
      "14": 6037,
      "Ba": 6038,
      "Bern": 6039,
      "DE": 6040,
      "Eric": 6041,
      "Follow": 6042,
      "Kind": 6043,
      "Lucky": 6044,
      "cage": 6045,
      "cert": 6046,
      "pity": 6047,
      "pizz": 6048,
      "rag": 6049,
      "##ique": 6050,
      "##ua": 6051,
      "##pire": 6052,
      "theat": 6053,
      "##anie": 6054,
      "##arian": 6055,
      "##oted": 6056,
      "##ado": 6057,
      "##osing": 6058,
      "##obb": 6059,
      "Nothin": 6060,
      "wherever": 6061,
      "helps": 6062,
      "##ples": 6063,
      "mustn": 6064,
      "Also": 6065,
      "##plex": 6066,
      "finan": 6067,
      "tries": 6068,
      "Marge": 6069,
      "compliment": 6070,
      "confession": 6071,
      "excellent": 6072,
      "bargain": 6073,
      "mistakes": 6074,
      "bothered": 6075,
      "protection": 6076,
      "counting": 6077,
      "motor": 6078,
      "particularly": 6079,
      "Royal": 6080,
      "successful": 6081,
      "eventually": 6082,
      "provide": 6083,
      "bleeding": 6084,
      "elevator": 6085,
      "Naturally": 6086,
      "Lemme": 6087,
      "Rad": 6088,
      "UP": 6089,
      "ly": 6090,
      "nonsense": 6091,
      "tiny": 6092,
      "##ooth": 6093,
      "##uable": 6094,
      "##CH": 6095,
      "##onica": 6096,
      "##anch": 6097,
      "##sequ": 6098,
      "stairs": 6099,
      "aside": 6100,
      "anyhow": 6101,
      "##odes": 6102,
      "shel": 6103,
      "##ulse": 6104,
      "##abl": 6105,
      "Shelly": 6106,
      "shoulda": 6107,
      "stops": 6108,
      "intern": 6109,
      "desp": 6110,
      "##ibly": 6111,
      "instance": 6112,
      "regard": 6113,
      "grandmother": 6114,
      "Phill": 6115,
      "officers": 6116,
      "squad": 6117,
      "Freddie": 6118,
      "Alexander": 6119,
      "parking": 6120,
      "directly": 6121,
      "silver": 6122,
      "Jeanne": 6123,
      "Doug": 6124,
      "separate": 6125,
      "instructions": 6126,
      "Jessica": 6127,
      "Thelma": 6128,
      "50": 6129,
      "Bible": 6130,
      "Liz": 6131,
      "bud": 6132,
      "##oom": 6133,
      "##IE": 6134,
      "##KE": 6135,
      "##ingo": 6136,
      "##vey": 6137,
      "inch": 6138,
      "stroke": 6139,
      "notes": 6140,
      "golf": 6141,
      "##antly": 6142,
      "##chan": 6143,
      "##outs": 6144,
      "sharp": 6145,
      "Heather": 6146,
      "Starling": 6147,
      "##irsty": 6148,
      "believes": 6149,
      "##ords": 6150,
      "remembered": 6151,
      "##lemen": 6152,
      "resist": 6153,
      "harder": 6154,
      "retire": 6155,
      "Sev": 6156,
      "leading": 6157,
      "transport": 6158,
      "based": 6159,
      "stronger": 6160,
      "misunder": 6161,
      "assholes": 6162,
      "robbed": 6163,
      "Federal": 6164,
      "Lois": 6165,
      "routine": 6166,
      "ghosts": 6167,
      "chemical": 6168,
      "therapy": 6169,
      "Jamie": 6170,
      "influence": 6171,
      "Sugar": 6172,
      "oxygen": 6173,
      "Bay": 6174,
      "Cos": 6175,
      "Jenny": 6176,
      "Lake": 6177,
      "Ol": 6178,
      "bang": 6179,
      "gamb": 6180,
      "pound": 6181,
      "tag": 6182,
      "vessel": 6183,
      "##bows": 6184,
      "thirteen": 6185,
      "##oma": 6186,
      "##eller": 6187,
      "##amber": 6188,
      "##raw": 6189,
      "button": 6190,
      "##ulu": 6191,
      "However": 6192,
      "clown": 6193,
      "lets": 6194,
      "surely": 6195,
      "assass": 6196,
      "marks": 6197,
      "swallow": 6198,
      "##ansas": 6199,
      "Government": 6200,
      "hurting": 6201,
      "standard": 6202,
      "passport": 6203,
      "events": 6204,
      "Africa": 6205,
      "systems": 6206,
      "ranch": 6207,
      "shoe": 6208,
      "Federation": 6209,
      "Wrong": 6210,
      "##believ": 6211,
      "recommend": 6212,
      "Dark": 6213,
      "Hunt": 6214,
      "Met": 6215,
      "Mall": 6216,
      "Mars": 6217,
      "Nic": 6218,
      "Oper": 6219,
      "WE": 6220,
      "duck": 6221,
      "fart": 6222,
      "gig": 6223,
      "mister": 6224,
      "##gent": 6225,
      "##hib": 6226,
      "##ota": 6227,
      "##uther": 6228,
      "init": 6229,
      "replace": 6230,
      "##race": 6231,
      "fruit": 6232,
      "##ifer": 6233,
      "chann": 6234,
      "chocolate": 6235,
      "conce": 6236,
      "Doe": 6237,
      "clin": 6238,
      "unit": 6239,
      "image": 6240,
      "owns": 6241,
      "Surely": 6242,
      "warned": 6243,
      "metal": 6244,
      "testimony": 6245,
      "personality": 6246,
      "staring": 6247,
      "##vernor": 6248,
      "bastards": 6249,
      "School": 6250,
      "effort": 6251,
      "Understand": 6252,
      "Kevin": 6253,
      "Angeles": 6254,
      "Claudia": 6255,
      "Cur": 6256,
      "Dall": 6257,
      "FOR": 6258,
      "Hm": 6259,
      "Hun": 6260,
      "Kim": 6261,
      "LA": 6262,
      "aim": 6263,
      "bars": 6264,
      "houses": 6265,
      "iron": 6266,
      "nurs": 6267,
      "rib": 6268,
      "wid": 6269,
      "##hold": 6270,
      "##rade": 6271,
      "##den": 6272,
      "##ym": 6273,
      "##ban": 6274,
      "##rell": 6275,
      "##adem": 6276,
      "##pper": 6277,
      "##esth": 6278,
      "section": 6279,
      "##umn": 6280,
      "spy": 6281,
      "asks": 6282,
      "cheer": 6283,
      "stranger": 6284,
      "Johnnie": 6285,
      "hundreds": 6286,
      "trigger": 6287,
      "True": 6288,
      "Quiet": 6289,
      "Graham": 6290,
      "Boys": 6291,
      "football": 6292,
      "Claude": 6293,
      "delivery": 6294,
      "existence": 6295,
      "suffer": 6296,
      "Lawson": 6297,
      "Veronica": 6298,
      "lifet": 6299,
      "intelligence": 6300,
      "Dunbar": 6301,
      "surface": 6302,
      "jewel": 6303,
      "Marcus": 6304,
      "Jacqueline": 6305,
      "rescue": 6306,
      "frozen": 6307,
      "Diane": 6308,
      "Pearl": 6309,
      "Dallas": 6310,
      "Cre": 6311,
      "CIA": 6312,
      "Jill": 6313,
      "Kiss": 6314,
      "Much": 6315,
      "Pay": 6316,
      "Roth": 6317,
      "Rub": 6318,
      "cere": 6319,
      "gather": 6320,
      "joking": 6321,
      "lap": 6322,
      "rac": 6323,
      "teen": 6324,
      "virt": 6325,
      "##we": 6326,
      "##inating": 6327,
      "##otta": 6328,
      "...-": 6329,
      "stiff": 6330,
      "##tered": 6331,
      "wore": 6332,
      "chap": 6333,
      "blast": 6334,
      "##roc": 6335,
      "##quis": 6336,
      "Rex": 6337,
      "monkey": 6338,
      "struck": 6339,
      "pays": 6340,
      "warrant": 6341,
      "precious": 6342,
      "stands": 6343,
      "##aze": 6344,
      "shotg": 6345,
      "policeman": 6346,
      "oblig": 6347,
      "ships": 6348,
      "Suz": 6349,
      "Barry": 6350,
      "horror": 6351,
      "purs": 6352,
      "Shouldn": 6353,
      "Senate": 6354,
      "naturally": 6355,
      "customers": 6356,
      "village": 6357,
      "Meaning": 6358,
      "Wyatt": 6359,
      "-...": 6360,
      "Bart": 6361,
      "Corn": 6362,
      "Dem": 6363,
      "MY": 6364,
      "Marl": 6365,
      "Pier": 6366,
      "Rip": 6367,
      "average": 6368,
      "bay": 6369,
      "dom": 6370,
      "fi": 6371,
      "hill": 6372,
      "makin": 6373,
      "nation": 6374,
      "##wray": 6375,
      "##iven": 6376,
      "##ts": 6377,
      "##za": 6378,
      "##isher": 6379,
      "##ases": 6380,
      "review": 6381,
      "##lder": 6382,
      "forth": 6383,
      "Thor": 6384,
      "outa": 6385,
      "debt": 6386,
      "lob": 6387,
      "loving": 6388,
      "agre": 6389,
      "mole": 6390,
      "uncom": 6391,
      "underground": 6392,
      "##prints": 6393,
      "Prince": 6394,
      "Ass": 6395,
      "##aval": 6396,
      "setting": 6397,
      "subst": 6398,
      "Mayor": 6399,
      "distract": 6400,
      "patients": 6401,
      "smells": 6402,
      "jumped": 6403,
      "Glenn": 6404,
      "tempor": 6405,
      "suffering": 6406,
      "creep": 6407,
      "Lampert": 6408,
      "juice": 6409,
      "Webster": 6410,
      "soup": 6411,
      "Mulwray": 6412,
      "13": 6413,
      "21": 6414,
      "Bat": 6415,
      "Buck": 6416,
      "Gib": 6417,
      "River": 6418,
      "Sing": 6419,
      "bump": 6420,
      "hid": 6421,
      "museum": 6422,
      "nap": 6423,
      "yards": 6424,
      "##oes": 6425,
      "##xx": 6426,
      "##EE": 6427,
      "##UN": 6428,
      "##enger": 6429,
      "##reme": 6430,
      "deck": 6431,
      "manner": 6432,
      "coulda": 6433,
      "conven": 6434,
      "spin": 6435,
      "happiness": 6436,
      "##onscious": 6437,
      "strugg": 6438,
      "decl": 6439,
      "Atl": 6440,
      "checks": 6441,
      "higher": 6442,
      "highly": 6443,
      "depos": 6444,
      "goddamned": 6445,
      "capital": 6446,
      "privile": 6447,
      "McM": 6448,
      "##coh": 6449,
      "package": 6450,
      "engage": 6451,
      "electric": 6452,
      "Imag": 6453,
      "sympath": 6454,
      "degrees": 6455,
      "including": 6456,
      "assignment": 6457,
      "##uva": 6458,
      "occurred": 6459,
      "Barbara": 6460,
      "Vincent": 6461,
      "coincidence": 6462,
      "17": 6463,
      "Cat": 6464,
      "Fam": 6465,
      "Ju": 6466,
      "Ren": 6467,
      "Ret": 6468,
      "cong": 6469,
      "diss": 6470,
      "gut": 6471,
      "holy": 6472,
      "lect": 6473,
      "pink": 6474,
      "##nn": 6475,
      "##rake": 6476,
      "##HT": 6477,
      "##bits": 6478,
      "wealth": 6479,
      "lip": 6480,
      "##illing": 6481,
      "##ural": 6482,
      "ability": 6483,
      "Hear": 6484,
      "##str": 6485,
      "worm": 6486,
      "noble": 6487,
      "seek": 6488,
      "altern": 6489,
      "##osite": 6490,
      "##eopard": 6491,
      "askin": 6492,
      "flash": 6493,
      "##mmmm": 6494,
      "surr": 6495,
      "sexy": 6496,
      "sweetie": 6497,
      "leader": 6498,
      "location": 6499,
      "produc": 6500,
      "valuable": 6501,
      "collection": 6502,
      "tears": 6503,
      "##--------------------------------": 6504,
      "becomes": 6505,
      "According": 6506,
      "tunnel": 6507,
      "Vietnam": 6508,
      "Virginia": 6509,
      ".\"": 6510,
      "24": 6511,
      "45": 6512,
      "Alf": 6513,
      "Duff": 6514,
      "Gitt": 6515,
      "Land": 6516,
      "Moll": 6517,
      "Peel": 6518,
      "Power": 6519,
      "Row": 6520,
      "Sol": 6521,
      "dent": 6522,
      "dating": 6523,
      "row": 6524,
      "tank": 6525,
      "wings": 6526,
      "##ris": 6527,
      "##bery": 6528,
      "##anoid": 6529,
      "toy": 6530,
      "ham": 6531,
      "##ulated": 6532,
      "##ected": 6533,
      "Stew": 6534,
      "##bley": 6535,
      "##epend": 6536,
      "##roit": 6537,
      "flag": 6538,
      "serial": 6539,
      "commission": 6540,
      "testify": 6541,
      "Excellent": 6542,
      "Quick": 6543,
      "Conn": 6544,
      "raised": 6545,
      "closing": 6546,
      "Freddy": 6547,
      "##ermans": 6548,
      "specific": 6549,
      "Detroit": 6550,
      "castle": 6551,
      "Berlin": 6552,
      "journey": 6553,
      "reaction": 6554,
      "Wendy": 6555,
      "Business": 6556,
      "focus": 6557,
      "convinced": 6558,
      "commercial": 6559,
      "Imagine": 6560,
      "Gittes": 6561,
      "Bear": 6562,
      "Camp": 6563,
      "Ford": 6564,
      "Gall": 6565,
      "Post": 6566,
      "Sel": 6567,
      "hitting": 6568,
      "lit": 6569,
      "rot": 6570,
      "sink": 6571,
      "tub": 6572,
      "##atin": 6573,
      "##aries": 6574,
      "mechan": 6575,
      "haul": 6576,
      "##ico": 6577,
      "##hern": 6578,
      "##ookie": 6579,
      "Andrew": 6580,
      "##ods": 6581,
      "##asts": 6582,
      "exit": 6583,
      "##umper": 6584,
      "complex": 6585,
      "agg": 6586,
      "rocks": 6587,
      "swe": 6588,
      "flow": 6589,
      "##aws": 6590,
      "headache": 6591,
      "trapped": 6592,
      "planes": 6593,
      "glory": 6594,
      "worrying": 6595,
      "possession": 6596,
      "sounded": 6597,
      "Lex": 6598,
      "fellas": 6599,
      "individ": 6600,
      "respond": 6601,
      "protecting": 6602,
      "Maxine": 6603,
      "pleasant": 6604,
      "McK": 6605,
      "##viously": 6606,
      "occup": 6607,
      "Board": 6608,
      "neighb": 6609,
      "INT": 6610,
      "swimming": 6611,
      "Parker": 6612,
      "degree": 6613,
      "Devil": 6614,
      "Cait": 6615,
      "Eat": 6616,
      "Hill": 6617,
      "Jeez": 6618,
      "LO": 6619,
      "Mem": 6620,
      "Pin": 6621,
      "dip": 6622,
      "fee": 6623,
      "jet": 6624,
      "nigger": 6625,
      "sack": 6626,
      "##gram": 6627,
      "##cil": 6628,
      "##rict": 6629,
      "##esis": 6630,
      "beating": 6631,
      "##ading": 6632,
      "stew": 6633,
      "ancient": 6634,
      "##eeze": 6635,
      "cha": 6636,
      "exchange": 6637,
      "goodness": 6638,
      "##agger": 6639,
      "Stu": 6640,
      "coke": 6641,
      "Looking": 6642,
      "supplies": 6643,
      "actress": 6644,
      "stopping": 6645,
      "adult": 6646,
      "Chris": 6647,
      "surround": 6648,
      "Herr": 6649,
      "winning": 6650,
      "colored": 6651,
      "treating": 6652,
      "settled": 6653,
      "billion": 6654,
      "coward": 6655,
      "Terri": 6656,
      "bowling": 6657,
      "embarrassed": 6658,
      "Inspector": 6659,
      "escaped": 6660,
      "financial": 6661,
      "Caitlin": 6662,
      "Cow": 6663,
      "Gent": 6664,
      "Whe": 6665,
      "Wind": 6666,
      "cats": 6667,
      "west": 6668,
      "##mo": 6669,
      "##bled": 6670,
      "##onse": 6671,
      "##owder": 6672,
      "revenge": 6673,
      "##imal": 6674,
      "##ications": 6675,
      "anal": 6676,
      "outfit": 6677,
      "##rael": 6678,
      "frame": 6679,
      "chart": 6680,
      "exists": 6681,
      "sew": 6682,
      "cared": 6683,
      "blonde": 6684,
      "##play": 6685,
      "badge": 6686,
      "strict": 6687,
      "termin": 6688,
      "related": 6689,
      "eaten": 6690,
      "##0000": 6691,
      "conscience": 6692,
      "##yster": 6693,
      "treatment": 6694,
      "costs": 6695,
      "reached": 6696,
      "failed": 6697,
      "sucker": 6698,
      "yellow": 6699,
      "volunt": 6700,
      "tradition": 6701,
      "##force": 6702,
      "##believable": 6703,
      "Ripley": 6704,
      "40": 6705,
      "Dign": 6706,
      "End": 6707,
      "Est": 6708,
      "Gary": 6709,
      "Hospital": 6710,
      "II": 6711,
      "Mason": 6712,
      "Nik": 6713,
      "Vul": 6714,
      "Zero": 6715,
      "bone": 6716,
      "ded": 6717,
      "dough": 6718,
      "et": 6719,
      "faces": 6720,
      "mental": 6721,
      "national": 6722,
      "punk": 6723,
      "rip": 6724,
      "zoo": 6725,
      "##ois": 6726,
      "##fl": 6727,
      "##lers": 6728,
      "##vo": 6729,
      "##erick": 6730,
      "##keep": 6731,
      "##ulf": 6732,
      "##umont": 6733,
      "coast": 6734,
      "supply": 6735,
      "attend": 6736,
      "committee": 6737,
      "##otted": 6738,
      "confir": 6739,
      "##ungle": 6740,
      "corpor": 6741,
      "touching": 6742,
      "article": 6743,
      "Having": 6744,
      "returned": 6745,
      "machines": 6746,
      "device": 6747,
      "estate": 6748,
      "labor": 6749,
      "received": 6750,
      "Austin": 6751,
      "mountains": 6752,
      "federal": 6753,
      "psychiatrist": 6754,
      "underwear": 6755,
      "frankly": 6756,
      "cocaine": 6757,
      "Hannah": 6758,
      "Avenue": 6759,
      "Bank": 6760,
      "Bond": 6761,
      "Lula": 6762,
      "Ni": 6763,
      "Rever": 6764,
      "Set": 6765,
      "Sign": 6766,
      "Vice": 6767,
      "Vince": 6768,
      "Viol": 6769,
      "darlin": 6770,
      "fuel": 6771,
      "ment": 6772,
      "rif": 6773,
      "rude": 6774,
      "sam": 6775,
      "##rid": 6776,
      "##orage": 6777,
      "##etta": 6778,
      "began": 6779,
      "##imum": 6780,
      "steak": 6781,
      "shown": 6782,
      "dece": 6783,
      "scan": 6784,
      "belt": 6785,
      "smooth": 6786,
      "dealer": 6787,
      "prevent": 6788,
      "skull": 6789,
      "delight": 6790,
      "county": 6791,
      "treasure": 6792,
      "Grandma": 6793,
      "steady": 6794,
      "cockta": 6795,
      "County": 6796,
      "Hitler": 6797,
      "loyalty": 6798,
      "pistol": 6799,
      "Came": 6800,
      "Duke": 6801,
      "Gre": 6802,
      "Gus": 6803,
      "Germans": 6804,
      "Jenn": 6805,
      "Lyn": 6806,
      "Makes": 6807,
      "hust": 6808,
      "na": 6809,
      "rug": 6810,
      "##nel": 6811,
      "##dell": 6812,
      "thick": 6813,
      "hers": 6814,
      "managed": 6815,
      "chip": 6816,
      "queen": 6817,
      "handed": 6818,
      "stress": 6819,
      "Arth": 6820,
      "committed": 6821,
      "Grady": 6822,
      "Paulie": 6823,
      "basic": 6824,
      "Build": 6825,
      "##ophy": 6826,
      "solution": 6827,
      "threatened": 6828,
      "Coff": 6829,
      "Julie": 6830,
      "species": 6831,
      "nineteen": 6832,
      "Lucy": 6833,
      "describe": 6834,
      "Obviously": 6835,
      "citizen": 6836,
      "Japanese": 6837,
      "exercise": 6838,
      "theatre": 6839,
      "lifetime": 6840,
      "surrender": 6841,
      "Jennifer": 6842,
      "Bureau": 6843,
      "Dew": 6844,
      "Emm": 6845,
      "Face": 6846,
      "Fried": 6847,
      "Ira": 6848,
      "June": 6849,
      "Kansas": 6850,
      "Mas": 6851,
      "Person": 6852,
      "Sandy": 6853,
      "cri": 6854,
      "corn": 6855,
      "der": 6856,
      "pant": 6857,
      "##vi": 6858,
      "##jack": 6859,
      "##inated": 6860,
      "##idate": 6861,
      "plastic": 6862,
      "background": 6863,
      "concept": 6864,
      "##ortion": 6865,
      "clue": 6866,
      "clients": 6867,
      "bless": 6868,
      "Beck": 6869,
      "chew": 6870,
      "interf": 6871,
      "phony": 6872,
      "series": 6873,
      "Governor": 6874,
      "##ivin": 6875,
      "useful": 6876,
      "Drop": 6877,
      "##otton": 6878,
      "promotion": 6879,
      "Harvard": 6880,
      "movement": 6881,
      "falls": 6882,
      "Marylin": 6883,
      "locker": 6884,
      "Fletch": 6885,
      "enjoyed": 6886,
      "editor": 6887,
      "Glad": 6888,
      "begins": 6889,
      "Julia": 6890,
      "Juliet": 6891,
      "ignor": 6892,
      "Company": 6893,
      "##cisely": 6894,
      "Definitely": 6895,
      "boots": 6896,
      "liquor": 6897,
      "holiday": 6898,
      "library": 6899,
      "Toby": 6900,
      "beside": 6901,
      "Brooklyn": 6902,
      "Arthur": 6903,
      "Iraq": 6904,
      "Bast": 6905,
      "Cyn": 6906,
      "Cross": 6907,
      "Diff": 6908,
      "Kate": 6909,
      "Tar": 6910,
      "var": 6911,
      "##aving": 6912,
      "##ww": 6913,
      "##while": 6914,
      "##moon": 6915,
      "##IR": 6916,
      "##!!": 6917,
      "##iments": 6918,
      "##verly": 6919,
      "Heh": 6920,
      "##essa": 6921,
      "soap": 6922,
      "pride": 6923,
      "alcoh": 6924,
      "##ablish": 6925,
      "##aging": 6926,
      "lotta": 6927,
      "minor": 6928,
      "secure": 6929,
      "cris": 6930,
      "Alvy": 6931,
      "grass": 6932,
      "Willie": 6933,
      "Dean": 6934,
      "Drink": 6935,
      "territ": 6936,
      "breaks": 6937,
      "##jection": 6938,
      "reports": 6939,
      "honestly": 6940,
      "joined": 6941,
      "angle": 6942,
      "Mikey": 6943,
      "##uggie": 6944,
      "witnesses": 6945,
      "connected": 6946,
      "Craw": 6947,
      "Beaumont": 6948,
      "organization": 6949,
      "washed": 6950,
      "Italy": 6951,
      "newspapers": 6952,
      "Irish": 6953,
      "##OME": 6954,
      "depressed": 6955,
      "Negro": 6956,
      "Priv": 6957,
      "individual": 6958,
      "Dignan": 6959,
      "Balt": 6960,
      "Cad": 6961,
      "Fel": 6962,
      "Hou": 6963,
      "Jen": 6964,
      "Oz": 6965,
      "Pen": 6966,
      "Pleas": 6967,
      "Sky": 6968,
      "Wild": 6969,
      "hm": 6970,
      "lower": 6971,
      "pi": 6972,
      "pit": 6973,
      "powers": 6974,
      "ult": 6975,
      "wing": 6976,
      "yo": 6977,
      "-": 6978,
      "##away": 6979,
      "##uary": 6980,
      "##de": 6981,
      "##mber": 6982,
      "##inist": 6983,
      "##ora": 6984,
      "##ashing": 6985,
      "beef": 6986,
      "##imm": 6987,
      "##ura": 6988,
      "wanta": 6989,
      "##stal": 6990,
      "##osen": 6991,
      "shell": 6992,
      "manners": 6993,
      "##aph": 6994,
      "spook": 6995,
      "worker": 6996,
      "Israel": 6997,
      "drum": 6998,
      "scen": 6999,
      "scale": 7000,
      "waitress": 7001,
      "mighty": 7002,
      "flower": 7003,
      "Ambass": 7004,
      "slipped": 7005,
      "dreamed": 7006,
      "##hhh": 7007,
      "Many": 7008,
      "presence": 7009,
      "fallen": 7010,
      "Const": 7011,
      "##lines": 7012,
      "teaching": 7013,
      "Small": 7014,
      "kissed": 7015,
      "Grail": 7016,
      "salary": 7017,
      "convent": 7018,
      "creatures": 7019,
      "packed": 7020,
      "opposite": 7021,
      "Elliot": 7022,
      "##ographer": 7023,
      "appearance": 7024,
      "Imp": 7025,
      "announ": 7026,
      "Used": 7027,
      "symb": 7028,
      "Brothers": 7029,
      "remains": 7030,
      "designed": 7031,
      "salesman": 7032,
      "strangers": 7033,
      "sieu": 7034,
      "jewelry": 7035,
      "-": 7036,
      "00": 7037,
      "?]": 7038,
      "Gonna": 7039,
      "Jos": 7040,
      "Mis": 7041,
      "Navy": 7042,
      "UN": 7043,
      "Ye": 7044,
      "dat": 7045,
      "ease": 7046,
      "mas": 7047,
      "tu": 7048,
      "takin": 7049,
      "vul": 7050,
      "##ga": 7051,
      "##tan": 7052,
      "##itors": 7053,
      "##omy": 7054,
      "##omic": 7055,
      "##verse": 7056,
      "whist": 7057,
      "##ams": 7058,
      "Its": 7059,
      "##ryn": 7060,
      "alien": 7061,
      "##iger": 7062,
      "chr": 7063,
      "compr": 7064,
      "##apt": 7065,
      "consequ": 7066,
      "unt": 7067,
      "stays": 7068,
      "buzz": 7069,
      "resign": 7070,
      "moron": 7071,
      "appeal": 7072,
      "function": 7073,
      "##ggin": 7074,
      "Unfortunately": 7075,
      "paranoid": 7076,
      "awfully": 7077,
      "Span": 7078,
      "Screw": 7079,
      "retired": 7080,
      "legit": 7081,
      "THIS": 7082,
      "students": 7083,
      "column": 7084,
      "psychic": 7085,
      "basket": 7086,
      "##ONE": 7087,
      "limit": 7088,
      "torture": 7089,
      "attracted": 7090,
      "Slow": 7091,
      "Stanley": 7092,
      "revolution": 7093,
      "intelligent": 7094,
      "mystery": 7095,
      "##IGHT": 7096,
      "Hudson": 7097,
      "vehicle": 7098,
      "neighbors": 7099,
      "Ambassador": 7100,
      "ARE": 7101,
      "Dest": 7102,
      "Data": 7103,
      "Fer": 7104,
      "Lock": 7105,
      "Mant": 7106,
      "Port": 7107,
      "Pass": 7108,
      "Peace": 7109,
      "US": 7110,
      "Yess": 7111,
      "cher": 7112,
      "jungle": 7113,
      "powder": 7114,
      "wives": 7115,
      "wolf": 7116,
      "##rand": 7117,
      "##rary": 7118,
      "##pson": 7119,
      "##aters": 7120,
      "sucks": 7121,
      "env": 7122,
      "Justice": 7123,
      "##aches": 7124,
      "##standing": 7125,
      "asses": 7126,
      "##quar": 7127,
      "flies": 7128,
      "actual": 7129,
      "Anth": 7130,
      "proceed": 7131,
      "##anca": 7132,
      "useless": 7133,
      "compan": 7134,
      "Left": 7135,
      "Truman": 7136,
      "Edie": 7137,
      "##fortable": 7138,
      "Commun": 7139,
      "profit": 7140,
      "frequ": 7141,
      "kissing": 7142,
      "NOW": 7143,
      "exception": 7144,
      "violence": 7145,
      "pretending": 7146,
      "nightmares": 7147,
      "Tyler": 7148,
      "document": 7149,
      "Scotty": 7150,
      "Nixon": 7151,
      "anxious": 7152,
      "pizza": 7153,
      "22": 7154,
      "Auggie": 7155,
      "Dool": 7156,
      "Ice": 7157,
      "aunt": 7158,
      "bri": 7159,
      "du": 7160,
      "dea": 7161,
      "dull": 7162,
      "greed": 7163,
      "ped": 7164,
      "pip": 7165,
      "wave": 7166,
      "": 7167,
      "##aign": 7168,
      "##wright": 7169,
      "##uous": 7170,
      "##cing": 7171,
      "##col": 7172,
      "##phe": 7173,
      "##RY": 7174,
      "##mp": 7175,
      "##OD": 7176,
      "##ete": 7177,
      "comed": 7178,
      "everyday": 7179,
      "trash": 7180,
      "##thia": 7181,
      "##reek": 7182,
      "Inn": 7183,
      "Beverly": 7184,
      "league": 7185,
      "smok": 7186,
      "flu": 7187,
      "payment": 7188,
      "according": 7189,
      "prem": 7190,
      "Jackson": 7191,
      "University": 7192,
      "Coming": 7193,
      "Gray": 7194,
      "snake": 7195,
      "worthless": 7196,
      "Elvis": 7197,
      "lessons": 7198,
      "Command": 7199,
      "owes": 7200,
      "prisoner": 7201,
      "closet": 7202,
      "penny": 7203,
      "crossed": 7204,
      "##ternal": 7205,
      "trem": 7206,
      "cells": 7207,
      "delivered": 7208,
      "##guard": 7209,
      "pushed": 7210,
      "dumped": 7211,
      "Minister": 7212,
      "taxi": 7213,
      "dawn": 7214,
      "mercy": 7215,
      "snap": 7216,
      "Drive": 7217,
      "senior": 7218,
      "Director": 7219,
      "filthy": 7220,
      "##craft": 7221,
      "surgery": 7222,
      "Cynthia": 7223,
      "Done": 7224,
      "Easter": 7225,
      "Lind": 7226,
      "Malk": 7227,
      "Saund": 7228,
      "cem": 7229,
      "fence": 7230,
      "furn": 7231,
      "san": 7232,
      "##iable": 7233,
      "##pers": 7234,
      "##oura": 7235,
      "##inn": 7236,
      "##isions": 7237,
      "##....": 7238,
      "##reh": 7239,
      "##uster": 7240,
      "##ellow": 7241,
      "Whad": 7242,
      "##andoned": 7243,
      "##osal": 7244,
      "sheets": 7245,
      "plug": 7246,
      "however": 7247,
      "killers": 7248,
      "intent": 7249,
      "feelin": 7250,
      "Short": 7251,
      "homework": 7252,
      "Fran": 7253,
      "supper": 7254,
      "appropriate": 7255,
      "polite": 7256,
      "Ordell": 7257,
      "Arn": 7258,
      "Arch": 7259,
      "Christian": 7260,
      "##ockey": 7261,
      "Blood": 7262,
      "answered": 7263,
      "Truth": 7264,
      "burgl": 7265,
      "imagination": 7266,
      "films": 7267,
      "darkness": 7268,
      "publish": 7269,
      "Indeed": 7270,
      "investment": 7271,
      "trucks": 7272,
      "##achelor": 7273,
      "threatening": 7274,
      "Evan": 7275,
      "Clean": 7276,
      "ignore": 7277,
      "effects": 7278,
      "Satan": 7279,
      "railroad": 7280,
      "procedure": 7281,
      "##penter": 7282,
      "##known": 7283,
      "Malkovich": 7284,
      "Saunders": 7285,
      "Add": 7286,
      "LI": 7287,
      "Light": 7288,
      "Live": 7289,
      "Palm": 7290,
      "Vick": 7291,
      "ach": 7292,
      "bi": 7293,
      "nun": 7294,
      "rape": 7295,
      "tune": 7296,
      "##sa": 7297,
      "##uated": 7298,
      "##uits": 7299,
      "##do": 7300,
      "##la": 7301,
      "ing": 7302,
      "##aling": 7303,
      "##ooo": 7304,
      "forest": 7305,
      "forces": 7306,
      "##aded": 7307,
      "alley": 7308,
      "defe": 7309,
      "##endid": 7310,
      "agents": 7311,
      "##issake": 7312,
      "bride": 7313,
      "Chuck": 7314,
      "union": 7315,
      "poem": 7316,
      "##arks": 7317,
      "moral": 7318,
      "contest": 7319,
      "sits": 7320,
      "##velous": 7321,
      "sentence": 7322,
      "entit": 7323,
      "capt": 7324,
      "media": 7325,
      "##ification": 7326,
      "considering": 7327,
      "discussion": 7328,
      "solve": 7329,
      "weakness": 7330,
      "##resp": 7331,
      "##AAAA": 7332,
      "##uddies": 7333,
      "Party": 7334,
      "punish": 7335,
      "Girl": 7336,
      "disgusting": 7337,
      "invented": 7338,
      "Service": 7339,
      "agreement": 7340,
      "Reverend": 7341,
      "Private": 7342,
      "*!": 7343,
      "Gill": 7344,
      "Hay": 7345,
      "Ian": 7346,
      "Jud": 7347,
      "Judy": 7348,
      "Kram": 7349,
      "Pink": 7350,
      "Pack": 7351,
      "Ruth": 7352,
      "Umm": 7353,
      "eth": 7354,
      "fer": 7355,
      "rotten": 7356,
      "ut": 7357,
      "##pa": 7358,
      "##van": 7359,
      "toast": 7360,
      "##esy": 7361,
      "##sem": 7362,
      "liber": 7363,
      "steel": 7364,
      "##urphy": 7365,
      "Third": 7366,
      "shadow": 7367,
      "atta": 7368,
      "##igan": 7369,
      "chose": 7370,
      "Yesterday": 7371,
      "Dog": 7372,
      "##izes": 7373,
      "##rock": 7374,
      "remove": 7375,
      "##ogs": 7376,
      "Yours": 7377,
      "##quir": 7378,
      "owner": 7379,
      "owned": 7380,
      "##ormous": 7381,
      "apple": 7382,
      "boats": 7383,
      "moments": 7384,
      "figures": 7385,
      "parole": 7386,
      "messed": 7387,
      "##orgeous": 7388,
      "honeymoon": 7389,
      "banks": 7390,
      "Dana": 7391,
      "laughs": 7392,
      "meantime": 7393,
      "Empire": 7394,
      "suitcase": 7395,
      "Knox": 7396,
      "Schw": 7397,
      "Seriously": 7398,
      "##ennis": 7399,
      "prepare": 7400,
      "Depends": 7401,
      "wounded": 7402,
      "whiskey": 7403,
      "April": 7404,
      "vampires": 7405,
      "religious": 7406,
      "Couple": 7407,
      "Jersey": 7408,
      "Homer": 7409,
      "Chicken": 7410,
      "lunatic": 7411,
      "uncomfortable": 7412,
      "McMurphy": 7413,
      "cripp": 7414,
      "Kramer": 7415,
      "Aug": 7416,
      "Cost": 7417,
      "Dil": 7418,
      "DNA": 7419,
      "Each": 7420,
      "Gosh": 7421,
      "Mosc": 7422,
      "Nap": 7423,
      "Pent": 7424,
      "Told": 7425,
      "Wyn": 7426,
      "ast": 7427,
      "buddies": 7428,
      "cave": 7429,
      "fry": 7430,
      "lat": 7431,
      "option": 7432,
      "pale": 7433,
      "rings": 7434,
      "tone": 7435,
      "wis": 7436,
      "ward": 7437,
      "##yard": 7438,
      "##anes": 7439,
      "##otes": 7440,
      "##hattan": 7441,
      "##idal": 7442,
      "hack": 7443,
      "##kee": 7444,
      "heck": 7445,
      "##ads": 7446,
      "anger": 7447,
      "##osis": 7448,
      "##oster": 7449,
      "chase": 7450,
      "chosen": 7451,
      "enormous": 7452,
      "Stra": 7453,
      "unn": 7454,
      "belief": 7455,
      "Whenever": 7456,
      "helluva": 7457,
      "struct": 7458,
      "recon": 7459,
      "gross": 7460,
      "giant": 7461,
      "Leg": 7462,
      "Guard": 7463,
      "advance": 7464,
      "adventure": 7465,
      "madame": 7466,
      "lands": 7467,
      "profile": 7468,
      "McG": 7469,
      "basis": 7470,
      "satell": 7471,
      "steps": 7472,
      "196": 7473,
      "Madam": 7474,
      "limits": 7475,
      "tempt": 7476,
      "photo": 7477,
      "##burger": 7478,
      "blocks": 7479,
      "generous": 7480,
      "Kids": 7481,
      "Casabl": 7482,
      "##fortunate": 7483,
      "princess": 7484,
      "##otchka": 7485,
      "disappointed": 7486,
      "timing": 7487,
      "narc": 7488,
      "Catholic": 7489,
      "shotgun": 7490,
      "Vulcan": 7491,
      "Doolittle": 7492,
      "entitled": 7493,
      "Moscow": 7494,
      "Casablanca": 7495,
      "35": 7496,
      "60": 7497,
      "Bow": 7498,
      "Diz": 7499,
      "Drew": 7500,
      "Hy": 7501,
      "Han": 7502,
      "Lay": 7503,
      "Lab": 7504,
      "Pow": 7505,
      "Rh": 7506,
      "Sea": 7507,
      "Valent": 7508,
      "dim": 7509,
      "fever": 7510,
      "fond": 7511,
      "les": 7512,
      "lung": 7513,
      "mate": 7514,
      "pages": 7515,
      "ripped": 7516,
      "wra": 7517,
      "##gment": 7518,
      "##fr": 7519,
      "##pes": 7520,
      "##esc": 7521,
      "##itan": 7522,
      "##ombley": 7523,
      "##icing": 7524,
      "##icip": 7525,
      "analy": 7526,
      "##iron": 7527,
      "Them": 7528,
      "abandoned": 7529,
      "neut": 7530,
      "##rior": 7531,
      "choices": 7532,
      "##udes": 7533,
      "Joanna": 7534,
      "cru": 7535,
      "##action": 7536,
      "Somewhere": 7537,
      "Twombley": 7538,
      "opens": 7539,
      "fighter": 7540,
      "Comrade": 7541,
      "wishes": 7542,
      "factory": 7543,
      "concert": 7544,
      "collar": 7545,
      "favour": 7546,
      "terrif": 7547,
      "mistaken": 7548,
      "independ": 7549,
      "offering": 7550,
      "##gedy": 7551,
      "Trying": 7552,
      "digging": 7553,
      "Evelyn": 7554,
      "earn": 7555,
      "Simon": 7556,
      "drawing": 7557,
      "Goddam": 7558,
      "yelling": 7559,
      "prints": 7560,
      "raped": 7561,
      "scientist": 7562,
      "scientists": 7563,
      "Nazi": 7564,
      "twisted": 7565,
      "fabulous": 7566,
      "confidential": 7567,
      "Kurtz": 7568,
      "Creasy": 7569,
      "Alfred": 7570,
      "Anthony": 7571,
      "cemet": 7572,
      "Arnold": 7573,
      "Beach": 7574,
      "Bomb": 7575,
      "Cab": 7576,
      "Cec": 7577,
      "Dennis": 7578,
      "Luther": 7579,
      "Soph": 7580,
      "bid": 7581,
      "cy": 7582,
      "horn": 7583,
      "nerves": 7584,
      "ple": 7585,
      "pushing": 7586,
      "rise": 7587,
      "saint": 7588,
      "##rest": 7589,
      "##the": 7590,
      "##bag": 7591,
      "toler": 7592,
      "##aron": 7593,
      "belly": 7594,
      "##ication": 7595,
      "##adel": 7596,
      "yourselves": 7597,
      "##uries": 7598,
      "Throw": 7599,
      "neat": 7600,
      "shore": 7601,
      "##uled": 7602,
      "##olt": 7603,
      "Doll": 7604,
      "spit": 7605,
      "troops": 7606,
      "##berg": 7607,
      "unfortunate": 7608,
      "drank": 7609,
      "handled": 7610,
      "slaughter": 7611,
      "breed": 7612,
      "couch": 7613,
      "##iety": 7614,
      "studying": 7615,
      "blows": 7616,
      "Dickson": 7617,
      "jumping": 7618,
      "Warren": 7619,
      "Ellen": 7620,
      "modern": 7621,
      "GOT": 7622,
      "establish": 7623,
      "Evil": 7624,
      "reminds": 7625,
      "audition": 7626,
      "Laurie": 7627,
      "fantasy": 7628,
      "Victoria": 7629,
      "Murder": 7630,
      "urgent": 7631,
      "Ninotchka": 7632,
      "kidnapped": 7633,
      "betrayed": 7634,
      "balance": 7635,
      "options": 7636,
      "Loretta": 7637,
      "shelter": 7638,
      "Seventy": 7639,
      "##ademy": 7640,
      "Crawford": 7641,
      "Spanish": 7642,
      "23": 7643,
      "?.": 7644,
      "Catch": 7645,
      "Cooper": 7646,
      "Full": 7647,
      "Hop": 7648,
      "Nell": 7649,
      "Pra": 7650,
      "Paine": 7651,
      "Sulu": 7652,
      "cable": 7653,
      "dy": 7654,
      "faint": 7655,
      "mall": 7656,
      "oath": 7657,
      "voices": 7658,
      "##ses": 7659,
      "##win": 7660,
      "##RA": 7661,
      "##mosp": 7662,
      "##CE": 7663,
      "##inity": 7664,
      "##isy": 7665,
      "storage": 7666,
      "veget": 7667,
      "##ilton": 7668,
      "although": 7669,
      "spray": 7670,
      "##eman": 7671,
      "##beat": 7672,
      "quality": 7673,
      "##acht": 7674,
      "Joan": 7675,
      "Reyn": 7676,
      "counts": 7677,
      "pulls": 7678,
      "##onym": 7679,
      "indust": 7680,
      "##rington": 7681,
      "Erin": 7682,
      "homicide": 7683,
      "technology": 7684,
      "expenses": 7685,
      "pean": 7686,
      "crawling": 7687,
      "narrow": 7688,
      "construction": 7689,
      "Dewey": 7690,
      "Ball": 7691,
      "Bour": 7692,
      "Dill": 7693,
      "Dinner": 7694,
      "Ja": 7695,
      "Nonsense": 7696,
      "Psych": 7697,
      "Rain": 7698,
      "Sun": 7699,
      "Took": 7700,
      "Vit": 7701,
      "Valley": 7702,
      "bachelor": 7703,
      "fra": 7704,
      "hitch": 7705,
      "sides": 7706,
      "von": 7707,
      "valley": 7708,
      "##hab": 7709,
      "##bird": 7710,
      "##edi": 7711,
      "##itect": 7712,
      "##rection": 7713,
      "reve": 7714,
      "##leans": 7715,
      "##imately": 7716,
      "knee": 7717,
      "sher": 7718,
      "shaking": 7719,
      "atmosp": 7720,
      "##ieved": 7721,
      "##unction": 7722,
      "##oln": 7723,
      "guilt": 7724,
      "sector": 7725,
      "spr": 7726,
      "spect": 7727,
      "needn": 7728,
      "##uded": 7729,
      "friendship": 7730,
      "perman": 7731,
      "adop": 7732,
      "Orleans": 7733,
      "Deeds": 7734,
      "hearts": 7735,
      "bitter": 7736,
      "freezing": 7737,
      "subs": 7738,
      "Maya": 7739,
      "buildings": 7740,
      "response": 7741,
      "practical": 7742,
      "hoped": 7743,
      "properly": 7744,
      "suggestion": 7745,
      "violent": 7746,
      "songs": 7747,
      "Mmmm": 7748,
      "identify": 7749,
      "Roman": 7750,
      "assigned": 7751,
      "sports": 7752,
      "Cuba": 7753,
      "network": 7754,
      "radiation": 7755,
      "aggress": 7756,
      "Gentlemen": 7757,
      "rifle": 7758,
      "Building": 7759,
      "##ironment": 7760,
      "Bod": 7761,
      "Cold": 7762,
      "HER": 7763,
      "ID": 7764,
      "Key": 7765,
      "Log": 7766,
      "Linc": 7767,
      "Pac": 7768,
      "Taking": 7769,
      "Tower": 7770,
      "dict": 7771,
      "east": 7772,
      "ge": 7773,
      "yuh": 7774,
      "##gic": 7775,
      "##sch": 7776,
      "##walk": 7777,
      "##car": 7778,
      "##rob": 7779,
      "##rical": 7780,
      "##vity": 7781,
      "##mate": 7782,
      "##miss": 7783,
      "##ACK": 7784,
      "##erent": 7785,
      "##utt": 7786,
      "##imore": 7787,
      "forb": 7788,
      "exha": 7789,
      "shoulders": 7790,
      "dram": 7791,
      "cocks": 7792,
      "##acity": 7793,
      "leak": 7794,
      "smarter": 7795,
      "disaster": 7796,
      "acted": 7797,
      "##eyer": 7798,
      "recru": 7799,
      "apparently": 7800,
      "Somehow": 7801,
      "Debor": 7802,
      "fifth": 7803,
      "##ials": 7804,
      "Lebows": 7805,
      "charm": 7806,
      "signature": 7807,
      "conscious": 7808,
      "Manhattan": 7809,
      "incre": 7810,
      "##ysis": 7811,
      "deton": 7812,
      "worthy": 7813,
      "studied": 7814,
      "ess": 7815,
      "catching": 7816,
      "reported": 7817,
      "offices": 7818,
      "purse": 7819,
      "marrying": 7820,
      "sticks": 7821,
      "gentle": 7822,
      "former": 7823,
      "threaten": 7824,
      "palace": 7825,
      "campaign": 7826,
      "prayer": 7827,
      "##ENT": 7828,
      "quarters": 7829,
      "GOD": 7830,
      "##ienna": 7831,
      "Leonard": 7832,
      "Daniels": 7833,
      "Skipper": 7834,
      "concentrate": 7835,
      "merely": 7836,
      "##agher": 7837,
      "poetry": 7838,
      "pirate": 7839,
      "critic": 7840,
      "Gabri": 7841,
      "Sheldrake": 7842,
      "Gallagher": 7843,
      "crisis": 7844,
      "Baltimore": 7845,
      "##quarters": 7846,
      "August": 7847,
      "Wynant": 7848,
      "Lincoln": 7849,
      "Deborah": 7850,
      "Lebowski": 7851,
      "Cop": 7852,
      "CON": 7853,
      "CAN": 7854,
      "Fe": 7855,
      "Found": 7856,
      "Fole": 7857,
      "Hung": 7858,
      "HERE": 7859,
      "Lad": 7860,
      "Nat": 7861,
      "Ross": 7862,
      "Viv": 7863,
      "cos": 7864,
      "dates": 7865,
      "fried": 7866,
      "hose": 7867,
      "hyster": 7868,
      "rank": 7869,
      "sons": 7870,
      "tab": 7871,
      "tons": 7872,
      "una": 7873,
      "##uine": 7874,
      "##hole": 7875,
      "##ties": 7876,
      "##fits": 7877,
      "##born": 7878,
      "##asm": 7879,
      "meas": 7880,
      "wears": 7881,
      "stalk": 7882,
      "stones": 7883,
      "##ello": 7884,
      "##urd": 7885,
      "shout": 7886,
      "noon": 7887,
      "##ively": 7888,
      "safer": 7889,
      "werew": 7890,
      "underst": 7891,
      "sche": 7892,
      "swore": 7893,
      "sweep": 7894,
      "bush": 7895,
      "deals": 7896,
      "Class": 7897,
      "##upid": 7898,
      "forgetting": 7899,
      "discip": 7900,
      "prize": 7901,
      "conspir": 7902,
      "##ysing": 7903,
      "entrance": 7904,
      "explained": 7905,
      "dressing": 7906,
      "patience": 7907,
      "Genesis": 7908,
      "robbery": 7909,
      "computers": 7910,
      "earned": 7911,
      "Merle": 7912,
      "victory": 7913,
      "Road": 7914,
      "Mexican": 7915,
      "necessarily": 7916,
      "Preysing": 7917,
      "Miche": 7918,
      "introduced": 7919,
      "Wilson": 7920,
      "Strange": 7921,
      "##formation": 7922,
      "persu": 7923,
      "complaining": 7924,
      "photographs": 7925,
      "Stephen": 7926,
      "Wonderful": 7927,
      "education": 7928,
      "epis": 7929,
      "cemetery": 7930,
      "Foley": 7931,
      "Bell": 7932,
      "Dod": 7933,
      "Hank": 7934,
      "Kong": 7935,
      "Nancy": 7936,
      "Spl": 7937,
      "Sub": 7938,
      "Science": 7939,
      "Wally": 7940,
      "dinos": 7941,
      "fits": 7942,
      "faced": 7943,
      "gam": 7944,
      "gest": 7945,
      "hint": 7946,
      "laund": 7947,
      "##gon": 7948,
      "##got": 7949,
      "##nett": 7950,
      "##oves": 7951,
      "##rating": 7952,
      "##foot": 7953,
      "##lot": 7954,
      "##pting": 7955,
      "##mar": 7956,
      "##bal": 7957,
      "inse": 7958,
      "##idents": 7959,
      "shitty": 7960,
      "alert": 7961,
      "sacred": 7962,
      "##aste": 7963,
      "gum": 7964,
      "waitin": 7965,
      "tracks": 7966,
      "?!!": 7967,
      "listened": 7968,
      "finest": 7969,
      "decisions": 7970,
      "troubles": 7971,
      "charged": 7972,
      "messages": 7973,
      "Agency": 7974,
      "affairs": 7975,
      "salad": 7976,
      "##arrison": 7977,
      "##cription": 7978,
      "Buy": 7979,
      "tastes": 7980,
      "accepted": 7981,
      "Teddy": 7982,
      "Corle": 7983,
      "Mostly": 7984,
      "fortun": 7985,
      "##arship": 7986,
      "criminals": 7987,
      "arrive": 7988,
      "homes": 7989,
      "potential": 7990,
      "intellect": 7991,
      "Sooner": 7992,
      "champion": 7993,
      "rubber": 7994,
      "Working": 7995,
      "statue": 7996,
      "Horse": 7997,
      "Speaking": 7998,
      "vampire": 7999
    }
  }
}